[SEP]
[CLS]
[MASK]
[PAD]
[UNK]
褫
醄
苟
帡
臁
损
冱
玷
濉
屙
諧
##house
媭
硉
女
婹
腨
睍
淋
羵
常
к
渉
觟
museum
ipad
昡
蔥
橘
𧺫
嶵
蓮
吟
馌
itunes
瘠
3200
##wan
91tv
穾
〞
匕
䍦
䰀
㗳
菊
7000
鬡
##つ
サイトは
starbucks
##est
干
inc
sm
歔
知
282
麳
矅
銊
搖
##jy
##og
1981
てお
弼
㜕
猿
霏
##ari
hong
欓
辯
##なく
攉
##800
児
韻
齰
 
慝
織
（
𩈣
276
镜
柝
##ji
䋎
霾
遥
瀫
嗍
耩
恻
dr
逅
１５
band
疏
information
鳙
㒩
韋
##のて
##its
鷺
##ura
0755
pinterest
砲
僲
耷
station
艭
cool1
##ney
鹼
home
限
511
canmake
鷲
233
篝
㮄
沇
なとはお
##ika
冥
妁
龚
媛
餛
譞
䰂
襪
禽
症
security
㠉
饋
##pop
鏘
㝱
移
並
q7
溓
卢
䀌
炘
桕
kg
##テ
呙
霳
攪
藏
1948
##ona
澓
吏
暌
桤
##9
畯
栌
mv
##16
诲
攢
1924
牝
槔
帱
颬
ب
𨇨
遷
箕
粑
巢
狱
¤
贱
蠈
她
钁
##ちゃん
剐
##95
攫
樓
踦
褐
posted
忒
祖
蔬
t
##tom
蘋
lofter
锾
266
悛
ˈ
忲
䯢
暸
療
倍
53
##や
描
訂
cdn
508
丽
嗟
##65
狫
昆
かかります
灙
䶉
rfid
㺦
鸣
檜
5mm
臟
𣤛
䏿
跱
棋
氇
嫻
贰
塭
皙
缝
di
666
脛
峪
long
black
豕
鼩
4399
诘
芷
##ll
##vg
※
##ae
猎
锟
殢
膞
gsm
丝
搴
嘮
4d
241
窡
艄
衷
药
韐
轨
纜
1991
𤃩
慗
##mw
[unused27]
る
臂
鄡
漾
羌
ryan
嵜
晭
兑
邻
淰
㑂
哓
碟
戡
輗
ⓔ
敗
nhk
享
inn
晲
rf
ง
鈯
䱹
刭
菸
菥
坌
january
阝
蛻
琛
base
慈
攰
ˢ
塘
䉶
麩
曜
隑
爨
表
蝼
髖
jobs
葖
哼
檩
捆
##are
и
γ
柵
##ip
鮪
蕁
姬
##gy
382
塪
黭
隤
伉
稞
##era
}
蒙
浛
鹇
龁
蚻
迫
託
npc
鶧
353
##ki
盂
蒐
髣
谁
殍
璉
岿
##lan
吻
饞
趯
nginx
挍
啪
サイト
哧
moba
褴
责
night
稆
锜
泽
拉
蕊
箘
失
䖴
蛸
荫
𨁝
諏
阋
猾
鋁
suv
劏
left
##uck
駆
𩇠
鶩
﹡
##nix
撄
##khz
庖
欹
拾
蚕
𣅧
75
𨋎
悫
htm
nfc
ウ
韹
◠
##oka
mcu
趗
赅
腔
绩
婐
叟
绯
谮
脫
saas
##verse
眦
兽
繡
http
堲
##wn
##＞
䝟
筱
霋
庪
冕
纫
焗
郴
佛
##mp
##み
裣
觳
##im
45㎡2
姐
胏
##ks
涪
より
##ght
齾
##rss
隶
𩐨
嗳
list
鹝
哶
蛋
1958
##ary
raw
##ners
∟
スキル
斩
##ｖ
some
藻
瞆
困
寖
##ak
駹
㜲
虻
牽
27
断
chan
罗
然
鶢
悦
払
嘷
娽
猍
w
询
笳
重
zol
琤
蚍
𧟌
紩
循
應
##なった
暝
闻
𨃪
铅
识
駉
##38
iptv
詔
比
𨳺
のお
409
##ran
町
槠
砚
挾
渝
愀
瀝
鑣
330
蜮
awards
##rip
𨖍
喊
窕
皆
##zone
##ull
ⁿ
294
价
廒
鹭
滕
贖
弡
闟
囋
203
o2o
衱
ᄌ
##ls
鶱
天
訇
cnn
般
楣
聖
ci
犵
獨
铡
む
鲊
redis
眴
絷
𤉱
負
闌
貧
滨
槅
之
榄
歷
聶
样
hotels
䌨
蹃
鹤
斥
纷
诀
蠚
惆
population
舁
莩
瑵
nas
##ーシてす
詈
剃
闳
鲍
𢊖
殙
ه
坻
##8
kl
忤
昵
聾
努
狨
躆
p3
犺
捏
䠱
##cm～
膨
扃
續
幺
cbd
##ｐ
鹊
鋗
𦕈
##ite
篢
慶
48
挛
闘
va
㗲
嗖
逵
敖
聣
wilson
凹
壇
彀
30cm
爣
苛
##ury
𦺥
dac
𩏌
脳
sars
▶
襌
涨
奏
绮
gary
滾
2010
显
顾
垸
a7
务
霗
麮
拊
誤
䁥
##とう
䃴
潦
豋
撺
逦
檞
鲂

嵯
醃
415
欧
𥝈
##js
write
噶
蕨
里
嘄
洺
唇
濯
霙
country
岬
偎
痺
five
曾
雍
ᆫ
dance
この
swissinfo
悬
筠
㲞
丨
頹
榅
蓠
锊
藿
鳳
##ese
软
[unused98]
勳
usb3
晝
幵
design
q2
䞴
去
鬉
##ew
捻
guestname
毌
衄
泫
抄
msg
ios10
闇
斐
奘
创
##■
糳
铊
瓏
濙
朵
5g
祓
朗
鸟
霮
蚑
蓪
擴
g3
郇
鹖
sputniknews
##я
亜
椵
before
椑
佳
晤
∼
絕
##ble
·
黄
娆
谛
廚
##ールを
支
逿
鉗
2400
四
dec
す
椋
迋
墾
嘘
醬
##ift
##41
𡗝
珅
百
##lc
審
mountain
washington
衮
衬
洞
囪
bat
2002
𦜕
膑
技
.
394
20
嫈
##ea
鬖
##かる
榛
814
娼
2200
砧
搥
帔
渙
tvg
change
谝
禦
cpu
∙
和
google
逕
secret
forum
##ument
䤖
莱
煚
酿
吳
垠
陋
潎
渋
死
協
##chel
㑃
竄
弧
匣
婜
厖
##baru
陑
france
呂
𩨳
鐻
恳
辗
嚐
low
絳
駩
昇
##を
14k
迈
瘀
埭
瓈
圻
渍
##coin
佼
馜
琏
耒
[unused83]
鱔
炙
惠
诣
赣
蒶
##ky
荅
polo
陵
牴
抱
瀞
瀧
##ford
討
櫚
诵
氲
##er
2l
渐
05
##ject
畦
fu
薦
##dn
1903
season
淅
纯
521
apps
纚
qs
trump
踮
𥷑
鄔
垑
埼
矻
刎
仿
𩃎
陝
徑
office
##きました
稻
継
旋
扡
ab
毚
線
杉
鏞
わ
巂
狖
##time
##ters
省
land
渫
瞎
呸
鸯
袄
錚
环
桥
沧
听
樻
䬯
##tags
岣
騄
鳶
喰
##admin
诶
down
肏
｝
晹
缥
祎
容
滱
santa
菶
须
馵
何
擊
敔
噢
構
㓗
##fun
栘
苦
偕
馊
佝
蒱
陫
泺
跑
𦁤
踴
嶰
樟
爊
who
數
蜹
毫
痙
coupe
ﾄ
music
访
詩
##hai
cafe
圊
b2c
family
甩
love
ems
##pr
纵
氖
1967
滏
働
祫
﹔
ky
钏
趁
姌
##oo
##bike
濟
吪
粤
dos
饗
piece
饠
490
寔
弗
盍
酣
結
莧
[unused47]
𣣔
brand
𠹗
絟
522
糺
％
麾
v9
##470
忭
矫
鎔
篱
萁
𩥇
烻
眲
褔
殿
踯
##という
遺
孬
棘
##pe
坫
4000
犬
袌
㙲
饙
zero
hotel
䓤
犛
fung
ィ
項
痛
爇
㙻
しました
玎
輀
廝
蛹
鑒
bella
##ao
战
桂
岀
jean
逼
紫
誥
圖
than
㨖
簜
彦
慞
桱
ebd
boy
杲
pack
##ース
簏
馦
ᄉ
##nch
hmv
404
槭
ln284ct
鎂
䄜
##80
炎
20000
凑
綦
扇
骪
趸
农
洎
啱
lab
轈
籀
䍐
砰
ㄎ
鼬
堛
alpha
醽
谬
霵
乞
367
𥙿
仃
潈
鎚
with
墯
魯
𧓈
痪
袞
輶
鹑
剞
##ider
粉
莖
asp
惝
206
002
search
supreme
颙
群
砍
瓃
诗
cl
疐
亥
[unused42]
斷
嬿
183
なし
##たい
争
♬
##pad
38
蛀
巍
てすか
004
䍽
份
颔
谟
窋
黖
##cept
village
佩
##rin
樚
誘
##dia
胳
417
峤
##f2016
翹
觜
傘
概
券
娿
湡
an
扤
##03
搪
db
鱽
閉
1974
𪠘
瓐
薬
microsoft
waze
能
𥻟
52sykb
琊
崺
耨
耻
煤
忳
祆
慌
殽
謦
瓟
嵞
廊
謇
䞇
橚
剥
〗
裻
濫
##57
；
##mple
砠
按
刻
##dan
髇
##hi
𨇾
屿
解
gui
𢋫
翱
甬
淨
ts
##ux
鼓
⋈
噻
皖
193
羊
遣
琺
i
莅
次
##or
soc
well
г
脰
粗
選
攙
徊
step4
驍
榠
袤
ldquo
浻
鸴
...
cookie
##bat
闱
筒
忽
胜
119
##cms
占
笱
sorry
㗁
ㄞ
䔇
秆
醁
崠
啼
620
lumia
100km
傋
伃
胛
85
##013
畎
bim
win
𣴛
灰
pp
讷
earth
高
囍
︿
12345678910
險
璋
栀
轶
蓍
闬
锼
貯
燎
𩐿
qq
play
铭
##ii
[unused81]
嫌
璲
蘇
翀
█
s2
轉
a4
鲭
妄
shtml
莃
矘
1200
逴
駝
鉥
檻
幫
𡏝
筦
觀
ctrl
醙
##alk
睯
伐
筁
ngo
##bug
##zu
boot
##min
桠
##vs
霞
##れます
敢
玕
be
right
q3
emma
1840
碝
噴
国
𧴩
嵂
頻
##food
䢅
qualcomm
士
楇
培
膊
麸
彅
渀
quick
address
釂
绐
饵
湑
炷
黅
搞
纥
玡
檈
䨑
骥
凓
７
䪥
##ｏ
iis
kai
櫋
驎
锁
罴
45
157
181
仟

胚
忉
たと
123
莓
召
吊
ノ
鍛
蔪
770
蓛
裎
8
疯
剷
榧
恥
閑
##isa
诧
侧
fly
鄂
##ager
截
alan
罩
棉
茳
鹲
絨
黒
##n
booking
缕
壺
馲
髟
舲
268
昊
賁
care
1945
 
1921
##oe
1978
50g
椰
270
颶
楯
滲
郝
鞻
醢
cf
墁
浘
倪
##＋
蚨
檔
live
㟙
忠
h1
顿
寛
leonardo
絵
vivo
題
##king
chicago
request
[unused63]
1908
鳖
镴
查
リストに
wine
##lmer
嵣
##93
垾
##します
奰
𤃳
頷
▅
覺
##md
領
椹
實
纴
##ube
##51
湮
澞
矐
魇
##yer
呈
尾
armani
篴
㖧
泐
瞢
莲
鹜
亏
扂
奭
馍
霩
袯
紘
罧
ex
sam
悠
385
珥
をこ
mail
𦂳
琥
豩
摯
劝
冗
冯
䗬
咛
壑
##ath
袀
吱
##cts
窳
𢬵
鴿
core
觞
悩
頁
搓
┌
拢
##pc
蒹
##28
釭
书
dha
services
徴
耔
health
裆
glass
镖
艑
珙
䫈
芍
h2
洿
肱
!
刍
ㄧ
颡
魶
豌
䟤
繕
几
page
isofix
soul
繭
膮
芾
彧
豎
さい
窆
しかし
1899
兢
頌
cctv
1905
葽
1909
抇
垭
膴
sean
葭
连
﹝
黛
[unused58]
镠
殂
赡
告
僅
溎
蓆
襳
mp3
𡰥
##te
##ger
1954
崂
##ged
锲
魫
##j
taiwan
ｍ
喾
ㆍ
号
525
3a
葴
柅
驶
禪
搳
頡
圓
浮
3d
しの
斔
簙
##page
##xon
marketing
xuehai
淘
彳
##イフ
愆
宴
瞠
幪
囵
〝
𧖟
1972
气
蟮
棚
happy
jpg
放
evolution
710
湧
##twitter
叵
㣶
趬
斯
##em
tbs
秾
鳃
𠜱
𡼭
‖
嚫
黎
曣
恋
佶
##58
炟
崮
扊
連
愤
のある
818
蝍
饀
##me
156
⽟
荇
孃
昪
砒
studio
##nie
坭
钘
##west
橧
䨓
蜃
东
臑
䍧
𠻗
##のは
翃
楓
璖
##ming
##med
嚬
simple
html
竇
720
钼
##2008
sci
薸
frigidaire
洟
钗
镳
枊
ᵒ
##cia
熣
熇
⑨
芸
501
##cake
萵
洨
蜍
駱
𥓂
𦵏
279
4
green
𡾼
员
此
汁
铜
玿
┊
睖
腺
洽
main
private
活
耘
羾
蠵
intel
甾
##900
毸
洄
椿
鬵
笯
棲
绺
浟
繁
横
礰
blog
𣄣
匾
酂
遊
靠
果
撃
谵
釵
邗
malaysia
殺
𡿒
‧
趼
籠
阛
##end
008
##lor
system
论
嵚
1997
饲
驔
苻
䉋
宝
躄
宕
edge
輹
jan
𩵉
曠
趖
會
鞜
festival
鈔
瘖
虑
鲤
扰
大
坂
硎
葳
▲topjun
穌
##gl
軌
autocad
##のに
lim
烝
电
711
屄
蝜
鷅
鋰
蔌
髵
蹲
莶
怂
б
や
铛
稘
鋀
偫
基
㵳
問
踏
诏
接
銙
躋
駛
230
591
膏
痱
毦
弦
魚
silver
瑄
疗
cookies
刜
毕
轓
䂌
>
䂊
尕
瘧
rar
僕
愫
征
儱
玫
纹
覭
遄
弓
旒
[unused24]
<
㗩
傭
冾
##ica
##ven
exchange
蜞
鞢
玖
vim
080
495
mama
侁
twd600
嘢
lake
囊
426
蜶
擪
歜
芯
誡
##sd
##hia
携
怲
蹝
joseph
灇
懹
76
jack
蛲
鳣
儋
褉
做
氤
3c
蓺
试
碼
崨
斂
飩
##kins
穩
摽
畸
炳
槱
232
ふ
姞
蟂
莉
箖
砝
疠
佯
煖
魂
##mah
甜
〕
宠
褪
✦
鱐
申
##bby
℃
##r4
敵
niusnews
辱
瓢
𥚑
㦲
梨
##ab
radio
爁
齐
郪
㜎
ソ
黠
廟
櫹
彫
骝
栻
嗜
↑
躘
舉
隋
遗
2005
籍
因
蔵
廓
䲭
瞖
##a
蜴
翅
濠
𧑀
ろ
sat
儸
𧉬
涯
llc
酏
over
赇
▲topmay
鬺
画
vr
溇
leave
毎
倕
仁
罵
陔
紑
##│
臛
しており
䙱
植
至
##our
ι
枉
69
##ります
啑
沃
樂
㝢
岝
墊
袖
奖
蹋
帝
酩
チ
嘅
悉
瘟
簿
掊
諵
暯
[unused53]
50000
鞘
韨
##anda
universal
抔
星
驀
弣
颅
瑕
齸
颱
700
悱
cosplay
夹

190
馬
喙
##→
衿
𧿇
徯
ᆷ
蚶
婭
洇
篌
骕
艨
徽
1gb
蒺
坲
##uce
掷
们
6606
charlie
老
＋
貔
觎
悇
稅
1943
圾
##ther
ν
奇
𥰭
疱
1925
test
kicstart2
奁
鳴
sony
september
进
her
避
攣
𨤍
2100
358
琭
聍
珏
cindy
䛕
纳
趹
祛
讔
但
vive
晕
始
97
忞
累
谱
歛
劈
饯
hktvmall
forest
膂
耿
性
嵉
璘
##ings
䋈
坷
刪
98
1904
彙
緻
ｆ
bloomberg
ep
鸩
##pan
ユ
class
mate

卫
休
2001
骦
氍
葌
2800
們
琼
𨒫
墅
敝
妈
矼
遫
幽
閏
稑
18
angel
输
helpapp
14
victoria
巆
彆
祚
酟
癫
238
稧
娛
酯
##dom
maggie
哻
撥
p1
査
ل
俶
480
帑
栭
43
氡
戛
164
轒
篙
嘞
晔
girl
衎
䯱
##マ
浺
窄
摧
辮
璀
熘
gd
##covery
缧
铀
##cle
ﾗ
瘁
¹
007
classic
㠌
腱
##urn
##hp
editor
嗦
##ndi
1867
诈
刃
┆
747
2021
##ない
粰
##コ
埧
姉
傲
籹
偲
砟
萹
卷
𨎹
靳
韘
麷
蜇
跰
№
㹠
疃
䧢
褋
500ml
攏
裳
too
忱
蹂
焉
狃
liu
糸
據
称
妎
navigation
商
碆
530
##ration
仉
1894
馈
捷
##01
惫
石
»
159
宸
morning
窎
髡
##～7
忧
掞
##tin
窣
##tsu
ces
膋
躲
櫃
##aka
##ties
狋
〔
324
幔
york
嗷
摸
xd
##wf
鲱
200
蜜
april
＿
邱
撕
２４
zenfone
##stle
𧣴
𤨿
诜
寄
翌
→
━
##ti
梴
yin
end
##78
需
鷾
霽
3kg
級
俾
陌
1990
賡
獵
將
us
澡
膳
畅
𠜾
灏
##c
xperia
土
樀
紽
340
bbq
畻
12000
竮
ก
彈
鼁
広
揔
𣗖
甫
嚀
matt
##l
1980
魁
沿
窨
950
lucky
㟝
鶑
調
㙳
悃
蠟
s6
##blog
雄
踒
嗽
䁀
庨
跣
鬊
搏
渲
##ナ
遌
痹
##nda
峦
薯
32gb
䰞
于
𪖙
ヒンクテンマ3
歆
##low
韄
棵
～～～
挕
𣶈
netflix
瞑
29
瀴
鬔
皎
轅
屜
领
copyright
蝻
鷔
vision
team
##baby
official
啐
旰
##59
▍
谣
蓬
熿
琈
叆
務
god
魑
b2
holiday
䏶
瀰
µ
禢
83
实
滁
灬
鰲
lp
##っ
款
庾
俗
猵
毊
罔
㫄
沕
5s
##ua
𣝔
狺
疳
驸
驲
砂
抹
軼
綖
㱥
蠅
##なと
轻
##uch
720p
贻
琇
畟
谦
唷
俏
閒
age
桷
37
hadoop
##ᅵ
蟹
𤮕
food
marriott
礛
趟
难
矗
鼖
[unused46]
羟
520
摄
碾
舼
after
##rner
nick
黡
咐
黍
◇
搡
##℃
環
佌
𪔱
т
患
盤
##♥
辭
飘
わせ
撤
##one
穜
homemesh
##lus
蹄
齊
蜡
怪
california
hdmi
枧
郧
瀍
栃
020
apt
狀
fire
谊
##いました
披
汲
ecu
巃
钭
⇒
轎
頩
麀
𩂓
㠀
镏
緰
聳
涷
订
穢
睡
𩍐
佈
櫜
喲
萏
莨
⑥
##ie
嶍
##ace
now
doi
薕
ても
##sis
漓
爾
覬
匍
12
涇
𡿖
螺
杗
傃
荸
##to
滸
攺
纕
273
echo
８
虺
痢
炤
诟
齡
炒
波
恫
iphone7
𥕕
㡘
抷
趚
𠷠
醯
録
##ved
慵
ua
呼
##be
櫖
浇
胫
เ
avi
㡛
疥
暐
梜
20cm
堅
窹
仔
##dical
队
##08
lulu
##et
turbo
めた
餦
闢
焙
腒
802
䁔
鈦
桨
炫
獒
紬
擡
岘
##hd
zen
泙
旷
韅
擇
##29
伧
pinkoi
霓
o
ah
皑
dyson
派
am09
栊
政
㒧
竦
から
妺
##め
敎
幻
膝
秧
摰
pd
##tag
專
##ano
87
艅
酪
渹
鋂
##20
苹
河
[unused31]
m
henry
ж
㡧
嘩
𡽱
埦
蟋
榽
免
︶
玓
苈
邾
兀
90
豸
gigi
酤
複
mon
躨
登
𣝡
䄍
##le
𦪇
祀
洛
禔
谄
杻
䁳
jo
笮
译
钻
192
㕒
bbs
懆
３０
芎
泮
##²
##し
榥
𨃟
聘
圣
昨
切
＼
his
冪
88
nike
脑
蒄
1888
sylvia
熬
蚓
叱
扌
瑽
劄
嫲
汞
鍥
jump
【
鲻
雨
岋
##xt
叡
##ncy
澖
𡾊
归
跺
憎
ᆯ
峭
##g
make
圹
険
##rc
utc
ⓘ
ー
[unused82]
▎
└
study
bye
鲛
icp
铪
貁
屩
拭
鋹
记
遜
鎌
保
bbc
犷
凉
cfa
1850
锚
斬
簉
藜
outlet
251
##─
avenue
σ
##put
##ral
嵊
##vis
蜘
饪
嗐
鬕
敷
we
強
窩
##ion
3p
##ーク
##price
䳢
䱐
##ate
##o2
october
涼
##ら
㹀
##ょう
##011
spf
匪
鍝
椸
##ション
㣼
貙
棬
椎
旎
霆
##th
睕
𠇗
剛
yang
氯
撝
㮚
瘣
Ｑ
society
λ
为
＇
賺
oem
駷
垮
sbs
袜
嫑
存
哋
ufo
christian
##vas
椤
层
雪
蝣
脤
霉
瀋
383
䴹
蹟
movie
貳
﹏
imf
##mix
悚
轹
昩
䃺
として
﹞
轧
磹
浰
怠
徨
䐑
顏
pm
##rey
bang
n3
粿
403
志
裾
葹
邜
樱
js
経
蘧
必
瘗
硠
301
秼
殴
house
甡
頫
叚
鋻
礦
捬
奢
lc
诉
鵬
钋
绤
矩
懘
852
les
澀
鲥
毳
吡
繼
骂
𦌉
##jin
珽
．
憫
##101
惜
榈
襹
峞
腪
烊
僵
a1
擦
摈
葺
×
韔
衕
led
ニ
##bs
##2009
##イン
乗
京
girls
tel
殪
##°c
32g
##home
##cr
铝
131
820
嗗
阯
鴹
薳
##580
毬
透
涹
楸
chinese
xi
婴
103
绽
balance
mlb
寫
砻
t3
𩮀
抏
螉
拨
劓
戺
獰
襲
ps
孩
鸞
愗
选
姚
豔
1916
##hc
附
𦭘
鴚
278
浈
铃
肇
𡶌
揌
嵲
摳
sd
䳵
竛
υ
肣
@
歲
誷
畜
錀
纰
剂
通
##ro
頠
ph
005
懿
pink
version
するとあなたにもっとマッチした
##ida
蝙
撚
##シ
菔
index
飖
𨽻
粒
愬
艋
瞥
㓤
倥
滔
鹳
辜
##いるのて
dell
##skip
##rent
䑃
hero
碡
霧
跋
via
418
缨
way
搔
吺
铳
𤒦
柈
㿉
錮
1870
兇
店
にも
熄
菩
蝤
宾
##p
##bin
てきちゃいます
彤
㬥
渃
乎
晓
100m
flash
##ir
马
砢
芦
edu
fintech
帶
kymco
氵
９
5l
摛
蝦
衹
麥
完
陞
绀
##92
䎉
##ロ
綸
停
阰
荡
廬
縻
read
泅
ы
欲
䟃
2k
秅
嘴
トラックハック
瑚
糯
槫
307
domain
稰
铏
##use
des
##rant
μ
ｊ
414
𤑒
lohasthree
ː
躜
鲶
##ive
杰
坍
齢
pg
##rley
谈
謎
敩
っ
ie
釪
𨠵
1600
蝎
綽
##ok
静
33
贼
尪
慱
qa
豖
伫
䰒
00㎡
##bot
鲐
伣
✖
簥
骟
俬
今
dom
##tte
nikkie
麗
类
䈡
颉
jul
224
類
468
##10
岐
庵
椌
𣊎
卖
瓣
2025
崣
肯
洌
lol
xxx
mobile
琰
暪
禹
☺
ｇ
0t
肨
趎
1971
懭
锡
佅
𦍑
侘
▲top
瑪
枲
嚚
滵
##ub
##85
稜
锉
鯨
碳
hu
侉
mike
##nis
姈
矑
債
##ent
×email
许
tai
凊
living
䆉
419
揱
窖
㑺
りは
璆
逮
邺
鴛
з
邯
髫
訝
孙
軮
龊
媲
牷
控
逑
塑
迕
饷
嘗
504
咣
劫
瞪
孢
猪
菌
実
##uid
娄
啫
弒
禀
鞫
wali
闆
红
beta
熯
鼹
暄
棽
related
92
潍
恑
矹
胍
##ach
晏
槛
鳗
噸
邁
剕
巊
曋
##６
##zy
庥
響
烂
汽
秋
湢
风
騧
𪆟
喜
数
踧
單
pe
惙
搊
ᅲ
あります
かこさいます
珧
鱲
竜
𥖎
𣪚
瞹
いた
##cm
腠
㴠
宁
ram
##form
收
綑
鯹
是
拌
磶
update
缺
嶺
𢈪
纬
浩
im
a5
荊
跙
媆
zone
屖
##2014
码
醮
兄
鷇
buff
玺
薠
##lton
鄉
殃
穗
tina
佞
縝
裛
𣫎
犿
庤
1880
厞
日
肆
閡
杵
鸵
##base
怐
钉
呢
繪
鄱
28
嚭
ちてない
camp
amana
486
oxford
287
藑
琅
喏
##tp
筚
甐
黾
蟫
q
骏
##q
䄺
research
㫪
蕣
劲
蜩
观
𨧱
玞
氣
virtual
楚
锻
觋
峘
rain
載
憟
跻
遁
刺
##に
𡡓
air
chicken
[unused25]
孺
𤱶
针
##れた
居
茶
锺
嚘
##nter
総
##ith
1962
診
蟧
榴
usa
讴
憕
痨
菜
嶉
祷
𢶏
瞳
糞
靿
谧
疤
坚
##す
坋
眈
歡
only
幞
ak
柽
僒
铖
##kin
醨
盲
##play
6p
1956
332
##nel
junior
弰
憭
黩
隅
煜
##eo
##2f
珩
##bbs
營
浿
穬
嶼
lz
value
download
碱
queen
溏
磺
v3
靃
iv
2a
sso
倏
驻
割
拋
玮
##との
䃂
捲
茌
罛
駏
卿
玄
##ray
醒
rc
扯
谋
##ual
䢔
ob
槁
耝
隔
柑
态
跩
鵩
##sson
蹬
刳
慑
踞
堨
𡿗
腹
棸
籼
ｓ
袎
击
##art
涟
锦
きな
##ｍ
〈
驩
せよ
master
##よ
穱
悖
裀
㳅
灘
jun
削
册
ad
＂
寘
阓
16gb
##km
𣔻
鍋
腥
馐
##3000
鴃
讧
kuso
ev
##sp
餒
volvo
㝗
海
蠠
嵵
镫
租
##888
𩆃
狠
阪
price
絁
乃
濭
璹
眠
睥
繵
瞓
勇
塗
訶
雜
##ッセーシを
揠
窺
𣨼
凪
牾
##set
nb40
慸
xa
鳸
害
乡
鳐
縢
覶
徲
40
佋
馁
39
闡
##oz
讪
坨
223
缚
笆
➤
些
##ction
##rn

鼐
嘚
680
##nder
媮
##mmy
埶
##oid
尴
崹
χ
qi
west
✕
2016
尼
库
flickr
雇
𩕳
幨
攐
電
败
##67
锣
hot
峨
翾
玈
裝
流
捅
なと
餘
離
style
0fork
768
妨
铦
she
381
臞
怩
氷
羱
頍
甤
廈
醲
𥫽
max
michael
fsm
赳
隉
棐
邊
婗
欿
赢
頜
£
atm
鵵
陇
fda
痣
鋸
蟢
children
唉
斃
悶
炜
潒
醓
昏
##tto
柚
油
ォ
粄
50mm
忖
𥈅
愒
117
name
鵔
[unused84]
遞
䁾
擋
揵
輧
匦
莫
𤢔
喋
304
𡹮
蒌
灣
cp
迷
䗖
杆
系
レ
##れている
粻
蜱
##asia
偨
剣
謂
𧤏
ebay
##76
怙
妊
361
嚅
庆
荃
酮
联
jing
略
match
372
蛦
1975
##fu
蠻
㜷
鹓
墼
77
##rt
fish
掰
哟
仪

錤
呋
䴠
膧
##1000
翏
##deo
籸
頞
span
萐
〉
贷
壟
##a5
夫
潰
籯
po
##ある
纑
##ps
跔
镍
con
瓯
1902
adsl
秬
恕
##cy
82
##ッフ
祕
恿
渗
朩
331
庁
蝉
tan
##ash
灵
睹
ㄉ
up
諆
3500
饕
駭
盉
勌
ibm
387
■
奋
鵊
宥
install
荝
䥶
迂
##tes
009
louis
arpg
姼
辌
踼
痀
写
笔
逄
伊
么
[unused93]
at
##ン
網
冻
痿
榆
歫
醾
韵
涵
##tail
嚄
鷤
𪄠
靘
leo
##dio
##あります
e6
##～17
碜
溼
篻
錦
痏
your
talk2yam
1871
500
なとの
##don
㰱
唅
##340
擽
[unused88]
螗
毘
##ias
羑
alice
涌
as
薝
萌
溔
晁
宙
猝
侖
翥
莼
枻
04
顽
镛
赁
捐
[unused21]
嶀
246
㶿
齣
ます
劙
349
##un
腎
220
山
滹
𣙙
dc
friend
mix
姻
閧
笼
茜
蛑
労
戕
絞
带
۩
雙
mobil
##2c
锔
䯳
limited
鹯
磁
樾
釬
諮
##１
##jo
鄧
ﾙ
摇
槳
耽
𣓉
获
準
神
駿
镆
靥
##go
345
䃃
##cker
羕
仵
凝
lady
湴
聴
𪔳
##ju
jessica
への
戴
［
沵
韠
劍
䰩
蜕
server
狐
钐
挽
氃
脓
汙
唧
嘆
凘
⒊
眇
硅
昝
蚪
蠣
○○
檿
龂
goo
78
в
蚄
糊
媊
[unused77]
跚
竟
笭
63
moneydj
咍
goris
越
隮
都
##sun
agent
扢
赃
湩
in
bb
吕
1944
剶
unix
##ex
1080p
running
##ett
秤
紗
诪
03
锢
楊
屍
##s
騩
纮
濃
黟
竹
畔
鄙
漴
膽
魌
鄲
雾
戍
殼
羒
恅
藭
belle
狌
𡙇
澳
暚
礁
祅
竊
』
霜
香
抬
腄
𦀚
碛
鬅
肩
莪
鉀
迦
烫
ipod
皕
裱
溅
掙
疢
稱
10000
鄺
屑
麈
燴
騷
tft
022
罝
䄄
鳺
篯
390
457
匋
鲠
窸
淟
䬞
梵
sex
贩
晱
蟀
共
pc
䈚
縣
暱
级
仡
邬
憶
lamigo
瀺
昒
䎘
內
羭
07
既
露
肿
睐
柤
钧
硯
error
𥖵
entertainment
咪
鬼
##beth
䬾
忿
峃
區
葚
犝
宽
缊
謨
##bay
鲁
帆
鲵
㳺
##13
##cket
鈚
浃
利
湁
殰
鷗
﹑
籽
挨
prefix
蟉
稌
е
颛
谯
also
##tch
鵌
蹣
娀
2019
䑙
△
滫
##ory
充
view
求
饔
##k
赥
霝
舆
cmos
豐
2011
鈜
鳛
缫
萚
窟
九
麓
汆
欢
屢
鉛
dark
随
被
洒
嵾
𩃱
蓟
贵
牖
鍍
264
##009
ᅵ
貘
[unused10]
64gb
娖
$
向
full
黁

ψ
逖
蹎
彺
呿
轺
隗
痡
㛹
鈺
磢
790
焂
薮
蹼
慥
ea
hiv
载
x86
ありな
萧
502
exo
610
娥
誻
ツ
##oon
00㎡1
埙
邈
欈
救
googlemsn
酺
蘊
analytics
頰
赫
pan
ン
閕
baby
𥈭
佑
pepper
厂
湖
[unused13]
##84
##ean
馥
礧
聱
甄
氫
䬏
瞍
trackback
黻
襋
愐
嶽
婘
##xx
閾
##ーン
宿
绢
岭
狁
诰
蓂
[unused86]
臈
爉
𧹬
妯
##media
cd
𪈿
筼
瘕
譊
萋
龅
##eme
##que
敉
矜
b12
禠
##ru
lee
铠
##やり
scrum
1952
abc
##gin
蛜
阏
67
ppi
506
##ground
sep
冒
窯
脏
000
淄
article
宋
##wood
a8
d5
磷
项
疟
脢
脹
缩
薶
0020
restaurant
##bon
慆
踔
甘
谀
ella
眊
叽
眶
me
##ort
滞
鍪
㲯
钠
one
徬
噹
寺
##mo
day4
ε
碇
桡
碌
烈
樸
𥾝
砌
歰
棍
輿
pk
880
3ds
痊
殥
2mm
滥
茁
䛏
瀜
𥱧
□
紟
退
噽
舢
讶
戸
𤅵
箳
vera
塓
pptv
##is
##ses
##ような
駊
森
𡷐
馂
捋
瀘
喔
贝
仍
飔
car
墳
outlook
兲
鹂
##oi
細
愓
sh
楟
瑜
伺
柩
矬
镪
睜
睗
習
嶂
is
bin
p9
审
##ola
b5
腯
##book
て
請
隨
鴨
䘿
裕
して
1947
佚
^
翟
禾
眒
稃
##８
滍
媪
kevin
淊
株
仙
姫
搠
𩿪
㔃
𣏌
bwl
鹩
䀜
違
##06
485
配
labels
銷
998
尻
谶
䳏
蔤
黔
見
䨲
villa
赠
公
赘
禄
㠎
堵
㫺
䡅
㓨
憹
夙
##oy
memory
揃
笙
箋
##ndy
護
鱷
,
觔
##way
师
羽
㔇
醭
侮
灊
history
袒
1985
曰
212
梅
ᄐ
甔
##tty
轿
ッ
uc
階
馞
偊
職
镃
勉
ﾝ
##ations
鹧
[unused9]
図
靅
帯
胲
籥
鵋
淡
yes
祟
剿
陛
禺
铢
xuite
噂
撑
曭
櫾
huang
凯
鯩
单
102
yumi
忆
儤
雌
sync
とても
𤻲
睽
誊
涶
痉
谠
攜
bit
鍰
co2
##mbps
鄰
谰
364
聲
##3c
messenger
锄
tree
崞
##77
磲
𥲀
د
雷
搉
##れは
johnson
[unused14]
√
are
釽
##rge
燁
陽
縠
机
敲
邰
re
##pods
瞀
瘩
荪
跆
巒
##kw
##uk
##dog
絿
##hone
瞌
亶
繽
㺑
840
裒
1994
##ice
##フト
勤
醐
虥
酽
弈
谷
吝
ᅢ
い
藍
挐
嗰
most
䚦
拥
辎
traction
猳
fox
簠
3s
儿
確
垍
密
華
①
騨
褾
##led
伾
冰
237
##www
讘
猜
绥
挶
獖
甚
俞
𤲬
阜
売
³
鸨
㠔
ﾟ
##sy
there
牡
毀
顆
ar
筑
##и
なのて
悭
椔
##とても
键
汩
il
きなしソフトサーヒス
ᅮ
讚
又
邡
化
##lv
熉
姹
⒈
adc
掂
姗
豅
##ton
钺
##kb
羚
##tle
熻
奪
𥬞
椮
燏
[unused44]
噌
赑
##bor
啖
埢
差
淬
墘
400
逞
逃
疸
maps
豰
vm
口
楷
樹
wi
澶
証
##400
apk
䱉
っています
蠱
闸
▃
##m
濛
汍
范
敜
ﾌ
畳
su
餡
050
磞
溦
丧
扔
##sco
晰
链
崿
𪅎
㢲
纠
─
##ah
茙
㠋
伴
井
豢
氓
泷
匆
爌
1000
##ma
##by
cos
312
##nor
晉
藩
tags
loftpermalink
轆
䖘
腴
￥2899
鲢
##ron
愧
匱
郷
邋
11
薾
将
噩
瀔
開
总
駅
hola
栉
mind
湉
砳
僸
されます
繗
闑
adobe
蝀
##walker
pokemon
詀
議
泇
蒻
☕
懊
齧
##クセス
窱
鹚
ク
鄒
edited
兕
肚
[unused96]
になります
natural
田
謞
桊
埸
虔
暡
蜢
莴
嵖
深
撨
寸
桹
鄮
菽
販
饛
ヒ
裊
廑
ｄ
窬
箍
膿
蕗
鴶
##ified
縡
という
209
925
愿
䓻
men
shop
觯
##ut
舽
倶
臒
態
𡵺
烽
芑
乐
𡻻
nov
##ツ
飑
荞
799
皮
feel
璇
##wu
埂
験
##ni
獷
豳
justin
訊
慣
ca
##may
咖
蕉
蚺
龠
蒩
予
囒
虾
鬢
礿
拎
ケ
±0
##なから
##ましょう
d
辈
safari
诸
綟
1942
鷕
髂
谐
##ring
㟏
諱
茱
沴
糰
unit
漱
晞
湱
煎
幣
荠
##こと
贏
816
鶯
燒
##pmlast
陜
鐳
へ
time
猊
脬
疾
169
璗
聰
憛
𣬩
僣
侅
𡩡
銃
800
耞
咷
赛
珷
72
374
##vertisement
最
湜
蚝
adam
毋
候
癙
罦
答
2345
閣
蛖
central
靽
信
侦
衆
翪
鐸
嫄
讨
豹
##0mm
𧍧
衝
艗
录
蜫
驵
廪
倢
懼
album
595
错
states
颏
癮
program
芿
牆
芰
賃
##みませんか
佺
镑
##をこ
㟪
芮
颣
icon
揶
ace
洋
醴
##oh
窦
沈
葛
unicode
366
㴻
懩
our
殓
忀
掺
ハ
##キ
##ama
二
唯
赌
懥
裶
熙
[unused50]
hello
㟞
垌
骴
舅
爢
譽
ぃ
非

昄
亿
烙
書
疼
嶇
記
槯
餌
##shine
##fork
§
sim
##より
王
𤅈
哌
担
鍵
host
達
rom
疚
卌
绿
錯
451
叶
貌
##かった
##tal
gaga
訉
唱
瑢
bt
cst
##nd
ﾉ
腢
栝
𪑮
堌
䊀
榱
‥
date
ø
途
搅
音
𠙆
amd
謄
巀
襬
急
##14
撠
wade
軥
5000
廁
妣
爞
7
㵝
到
𣞶
捂
腧
睩
鄩
党
够
歹
婆
巽
:
##de
##98
##tory
鬧
蚬
嫁
遍
隹
砸
##ly
##tra
斸
་
脉
絶
輾
##よう
えて
253
使
闩
##ick
趿
bad
䰠
site
鬃
##ff
辻
##っています
啁
粲
淮
##また
攥
qqmei
艡
##rail
鴽
艮
妇
哱
##ways
惷
##ible
唽
樽
敌
橛
mbc
##lar
##にお
鏟
遭
１８
沪
##line
ま
挂
435
寵
狰
淚
桲
尧
益
鼊
岔
孛
鞯
彭
2009
敞
煁
20g
##yan
婵
虐
歃
堞
##vel
##bb
𬗟
涖
蕲
198
月
臾
姜
駜
ᆨ
瑩
谕
襯
it
梧
脝
00z
##500
炽
1973
廱
媖
榇
遼
朽
葸
丞
㺄
夥
阶
肢
袊
鸠
ｃ
狙
纼
喃
拫
甌
痧
2cm
薍
馀
惹
嬽
帲
㬋
燹
##tc
祾
築
vmware
岌
post
擱
鵜
绖
涠
睴
暧
颼
腩
tw
靴
##tti
##ちの
嶷
怖
铁
裨
hdr
涽
勻
棺
225
靼
靛
郤
塸
珊
モ
##nny
防
chocolate
騀
垤
豵
蟆
微
##91
rmk
诇
zip
у
帴
##right
辟
图
ott
篮
沢
勸
106
柁
専
诩
貫
觲
嘟
闯
謢
𧍓
嗫
晚
嚊
蓰
叼
n
鱍
梶
滷
贈
輛
噣
18000
mvp
aws
##vic
仰
铿
堤
串
淀
匈
蛣
##nce
魈
钾
剬
闰
镊
髾
繊
倫
俵
蚃
庌
雋
##ctor
少
耧
…
structure
铋
府
语
缏
box
慭
锹
绠
飓
鸷
膀
囂
##から
ma
##rth
𩢷
edward
硐
悯
暹
跛
made
erp
cio
廲
雳
琐
##yo
860
蹉
紮
粮
穀
茆
缙
嶱
畺
𢼮
牧
厭
覽
##２
##↓
昔
魍
149
幍
垆
纨
vogue
蚛
拐
##×
杅
𩁺
掮
鳍
楔
etc
覈
家
僻
娠
敚
薈
枢
幼
comments
adchoice
懰
嘎
氏
挟
阅
鵻
蛄
荰
搵
5d
興
膦
c4
翻
sp
孽
棷
酝
頣
猖
娋
酡
瑑
歸
𨠑
า
舜
卻
䯰
熨
[unused76]
饴
氁
呜
落
醅
147
鳘
郭
13913459
晼
##ys
屹
烹
61
##se
昕
𬋩
黴
巴
跠
庄
馧
䧏
london
317
惂
陟
ᅬ
腳
穆
艼
脧
world
潧
go
垂
樵
军
疲
行
憢
##facebook
from
礨
餔
桐
莽
謗
谒
赗
##ison
鸁
nikon
##copyright
カ
乳
##rus
螷
鼽
[unused40]
100ml
##stack
汎
聊
101
##レス
##ス
驰
##り
增
䢵
屐
卝
怕
𤪌
顈
垣
2003
醰
鞸
礩
kanye
竿
铙
蟃
蓷
秭
幂
交
嵎
飐
疊
拇
鞳
纛
衾
绰
韺
垵
##hat
与
rate
锤
89
送
爧
傝
跎
cry
aaa
鱿
嘈
泗
䊵
411
苡
芼
隆
ぇ
轗
恃
霹
逯
岨
蔡
鄭
䲔
箴
吆
翮
轴
嚇
玉
##ise
褦
great
##↑
颌
film
跧
督
kde
𤶬
蟘
溟
＠
[unused57]
ღ
罷
##シャンルの
耐
15
facebooktwitterpinterestgoogle
##bo
ي
のこ
１
淹
禿
鋼
騁
魷
珠
皇
姪
してくたさい
乔
苋
优
2004
讲
ｘ
腫
妓
javascript
5
毒
蠥
讯
1940
帕
還
allen
薅
揾
236
擿
皈
痈
殤
罐
咨
涝
36
嗞
172
wikia
䏰
##dy
駁
夑
歍
2013
瘃
豉
触
蹇
锅
麻
濂
硫
詡
堀
懮
寢
篗
##ino
麝
ならワークケートへ
彰
㗎
亙
##あ
孟
故
碍
礥
##mar
参
iii
5757
形
竖
霈
羙
泖
スホンサー
尞
察
gay
##こさいます
##nan
超
欒
缅
膇
弱
桯
oh
庮
簪
䃁
霪
粘
皂
煠
025
摊
祤
蝥
粹
dram
##rum
㬅
薜
全
銹
red
熹
谢
bbe
婑
jones
寻
㘈
盧
寠
茉
終
##zi
##eam
麚
埗
##die
囚
騋
##ｙ
soft
傩
##ul
込
184
##88
plaza
##cl
www
vmalife
sir
魃
じ
national
985
摒
赤
##tt
鹁
￥
##ig
䱇
湣
cn
social
沩
秕
##ht
惵
骼
垢
怮
usd
烓
峉
絜
聽
h7n9
##cus
##ye
䃤
譙
蹦
谳
2007
紒
蔣
##hing
ra
忡
蛔
##new
覕
qvod
忌
講
晢
䙫
畢
碬
獢
喌
##bi
臭
airport
擘
393
溁
亭
嗝
戶
2018
滤
缑
鄹
う
𦋏
𡞦
惔
fashion
state
瀯
melody
锥
杙
旓
～5
椴
鍦
誦
鐘
break
娭
棓
恰
漠
単
读
裌
crm
に
庳
灺
嗎
应
良
technology
︱
##wer
遏
1987
罳
矿
黃
㫋
缉
蠊
ppt
##365
##rain
憯
##2010
荚
jim
歓
##ny
鱼
##uan
salvatore
ppp
ロクイン
軿
##stone
water
曙
榭
梳
爽
ㄇ
輷
##osa
倆
锱
庚
two
𣶂
鳩
玃
073
𧞔
##pm
茸
瀌
瀛
禁
罡
旬
袋
蜣
郁
稳
蟪
質
蚳
sap
霿
##ko
𡄸
侈
菨
蘿
##test
о
蛱
貴
勾
鳞
荨
件
╚
迍
钲
wp
252
倠
湯
恢
虬
on
[unused26]
靬
獌
㗋
焭
媠
雭
city
欸
wear
8k
もちろん
㗭
c
乍
蓘
沂
镡
∥
礪
files
##2007
269
敡
翿
##こ
ae
柞
㠝
庱
蚊
瓻
嵋
740
悁
馕
己
膚
奈
漫
刲
髯
咬
觼
醵
騃
統
瑳
怭
st
##hk
1984
##ail
褶
埪
促
媳
婳
蚿
める
濺
刷
弁
吃
mini
𣰕
163
潾
邨
##es
##ph
顸
友
𡾐
梓
礙
畹
獳
憧
㩧
炔
ss
yu
software
堿
冠
ᅴ
68
loft
厹
峴
撸
overdope
##tro
∠
瑠
稯
釁
ocean
睋
淫
雎
谏
1951
##え
降
僬
sweet
jay
惴
##free
判
有
枵
诔
漳
挼
詄
胈
鼙
諸
章
vga
鑮
鴦
sport
##let
亘
正
ck
ᅯ
糨
institute
kd
裔
詮
碓
呖
頑
daniel
amp
年
261
胎
[unused6]
458
彻
伛
：
惣
恭
420
mmorpg
杈
㪷
182
狶
kids
慄
渣
dit
伶
亞
篵
駓
÷
洹
[unused30]
惺
坛
気
##rix
canon
椭
忔
麑
辩
諾
event
蔊
kpi
𩦺
掯
𩆑
拳
巑
諦
灭
珺
mp
為
嗶
銖
㒹
餩
揹
𥙷
copy
4200
##ᆫ
uber
##ちは
眤
窾
顑
6991
讦
呵
ios9
疋
饒
56
鰋
[unused28]
䆫
絺
355
##ome
youtube
鴠
攕
##ivity
洴
骹
lg
4m
靡
ち
覇
瘆
词
晃
𦳏
塞
𦨣
##ｄ
脾
竑
礉
鈣
醦
##gion
踊
罤
睑
鏊
婢
盎
⋯
##down
栋
街
哀
鵀
m4
##007
伞
藝
龍
逍
##works
##cat
##75
厔
屌
蛤
捓
ᄅ
盛
汛
茭
旴
磡
篦
漯
魿
速
趋
勝
詳
##link
##ez
読
痾
尽
桎
##１０
黓
輯
浼
侨
惓
芡
74
等
依
笫
²
瑸
驙
怒
揲
组
348
笤
ago
䌖
𣹱
枮
伢
颴
惨
cad
hpv
屴
㠁
schemas
眩
眵
綵
氄
才
1930
github
掿
mango
厩
鹠
峽
䆳
204
内
㵾
桃
睆
##ula
燬
籞
ァ
耏
𩭝
磅
处
蒂
埘
##ling
墨
##ュー
##tech
fbi
拱
叹
骑
駐
ｃｐ
##して
avira
saint
kk
##fc
剟
悊
燼
啤
∕
嵽
薩
碊
1923
礌
[unused64]
癃
）
##たけて

ubuntu
された
鲫
shadow
†
縁
變
钩
绂
001
498
taylor
芩
飕
傻
‘
碨
痂
漆
蜻
##ve
ย
fluke62max
爛
矶
##pa
900
##ball
邙
shell
奚
2500
2756
諓
women
彄
抿
acer
very
ivy
𣋉
舛
┅
blogtitle
萬
winrar
1938
擩
鬍
只
坟
氂
滟
吓
ganji
迨
✨
贙
擺
sdk
硕
鯆
怗
##rtex
##uma
鑑
脡
頃
gomaji
䒀
◤
##code
抆
铘
韭
卵
骊
anna
##last
1v
蚹
企
漢
鷘
9
language
镉
坳
嵩
▇
10g
遝
##ても
kelly
汨
奸
殯
枚
睢
量
乩
砼
隘
财
も
￥799
账
庫
沓
埻
偈
壽
坐
－
薰
揍
##mn
##53
144
圌
30g
噇
赊
旐
m5
v
arduino
david
圧
gmp
潼
##zer
##ェ
☼
殭
殇
##tier
渴
##んな
腮
刿
脐
事
##rial
帣
褟
泛
譀
䆗
a
9985
扼
ssh
weibo
軱
哑
絃
690
be2
阔
鞚
〃
抨
##rdon
肫
绞
嘉
蕩
呫
鷡
dragon
纡
锬
##ns
憣
怜
祂
剌
名
緺
##34
栎
厣
curry
𩰀
暤
座
课
貤
しい
遐
圁
into
跞
翨
踰
er
篡
gartner
##res
fgo
##watch
##lio
win7
怀
郫
螇
##2011
##gence
柧
肺
儜
ｖ
鞬
癖
贍
gucci
墺
洶
##ンス
辍
耴
帻
孵
蜂
wing
6m
疮
復
䥥
䓑
牌
开
蛊
生
蠲
眙
##★
##come
sbl
吞
秉
蔂
揕
轍
##iko
暍
軷
gold
礐
盬
吁
zara
sunday
薪
窭
蜐
◎
猺
127
color
駃
special
崁
妞
he
##63
##here
isbn
３
特
蘉
貪
smart
##h
秣
塾
tom
##イス
萱
𥻘
頀
扬
辉
柏
焬
睪
dna
犘
fpga
previous
腆
苾
煴
㟢
濊
[unused17]
愠
thomas
桜
昧
401
剺
g2
柄
萯
怅
桿
瑾
璞
𣰉
##ken
煩
iq
諄
箫
##a1
166
愔
房
##sday
##●
胸
涕
si
迒
闫
璿
dollars
瓿
邵
综
ktv
缈
link
𩂅
1935
college
##yu
16g
苇
瘉
髦
555
毽
眨
##a2
787
馴
𦾶
㪍
泉
砊
81
rdquo
刽
洮
1949
峎
怇
鹍
怏
履
罽
η
##abc
##０
梦
塯
##thing
倩
疙
訥
饥
瓦
弩
00kg
緯
け
䋞
1389
臬
圬
擔
獗
8g
##36
shi
15g
藉
64㎡
萦
緌
喟
注
shopping
】
810
䄡
玘
玾
馅
厉
枰
伋
##イト
颳
yamservice
™
gp
##v
windows
清
校
琮
##ions
乌
but
䣛
##n1
旆
cup
ne
980
椟
朄
啃
𤀌
丹
刂
笃
##u
##dd
##rl
暏
䬟
adsense
e1
130
market
鞧
輝
玙
290
汜
氿
聚
エ
amy
辘
荖
ｯ
鲲
㹞
趱
畛
暈
岙
侏
##016
焫
哈
狸
𤱕
𥜿
ｎ
korea
淦
oled
𢧵
head
褥
##nc
贛
𣰽
懶
塚
扳
艱
store
sb
痝
𩪸
xml
263
匌
瘚
咫
𢷬
楽
##ルフ
##ame
獻
悴
空
俳
grand
颞
543
ь
337
軜
##ple
豃
##el
p2p
create
毖
调
hd
呑
芪
atom
org
夠
fedora
8891
螣
聿
作
䡮
fairmont
斠
錢
樏
920
dan
##oa
枓
##sl
䵷
栱
##log
archive
枯
驯
兔
〓
##han
dota
𣄢
俯
52
ᄒ
udn
盦
##てきます
☀
star
孔
know
▂
尅
##share
舟
㒟
call
骗
邹
##のか
預
暅
荂
卅
pci
##ood
衯
叉
仑
守
閍
爵
涢
㻞
%
##fl
鲿
窊
妮
峥
槴
顟
54
锐
photoshop
邅
辏
罥
##mall
歌
轮
汝
崎
nbapop
𨴻
蟏
綮
208
素
猴
沾
4s
##ference
##nap
抡
##の
opec
##hg
舵
pk10
##ヒ
199
輴
箠
涾
睚
镤
絯
捉
[unused92]
具
洁
⌒
寡
𣙷
ɡ
奂
囐
靂
inwedding
##nsis
de
骇
它
潭
mo
voice
酬
welcome
盼
娜
槬
231
协
饨
噍
忏
猬
𡨋
蟠
氛
娱
momo
邇
∀
髐
诊
迺
洳
痔
3m
park
enter
拷
辰
蹢
麵
credit
壆
胐
龏
county
蟨
see
贺
盳
鑊
light
gg
hair
𨵿
医
碽
##ｅ
贓
##rid
block
瘿
stone
law
糗
轪
internet
槿
荜
挚
洣
垕
𦊓
drive
躤
墆
ikea
胾
隰
##cha
930
抓
430
镔
䇄
洙
呴
軖
篩
楥
##tos
キ
汀
鉔
馓
濩
莂
虞
蠓
屣
滀
菼
腻
品
摏
䇲
檗
##gp
嘒
厓
c5
##ｃ
蜥
隣
䕸
莚
陈
瓆
adidas
##ult
##so
銳
r2
喷
7x24
㵟
薊
6221
姑
鹆
梩
旄
シ
髏
south
##あり
1968
侣
鑾
撞
嘂
blogabstract
氙
〜
簦
rx
淙
##nic
葧
俇
薛
291
540
緘
##graphy
驳
僯
瘸
798
媸
徜
鶄
what
##tl
gt
ㄢ
steven
由
螵
close
297
213
汸
xl
報
炼
blogfp
驛
䀨
鰓
拙
㨿
و
铎
练
恚
攦
r11
jose
喨
out
滉
户
镘
1913
妻
発
##rap
跗
亻
𣯀
𣑽
饬
㎡
倭
##～
der
蒉
侹
亀
##pu
foundation
谇
蘤
徛
㹶
軀
##xi
灌
鎧
舸
幄
鏕
拆
蝶
簺
84
ide
垩
翚
豚
擂
牯
会
𪙨
闶
詆
牏
湄
_
线
##walk
㧎
匿
item
嫭
docker
##xure
##ering
笊
骋
1976
翡
构
镁
rp
##ave
爱
馳
𣺻
tf
plan
祼
讻
瀆
town
鸶
ᅭ
##う
瓜
蠹
オーフン5
⁄
3400
涸
瞇
攒
##head
奼
竅
潑
##3
舍
嬲
藷
枋
Q
罭
ie6
234
沲
芃
岸
司
苘
進
沘
##2
323
##dot
垲
active
劢
♦
鄣
紜
蠔
蛟
van
##host
瘘
坱
髭
缱
餅
龛
cdma
はい
簖
م
氨
篿
##ing
pop
reading
恐
777
𦩷
熟
ᄆ
science
鏗
1996
孱
鼜
阵
伕
##nus
缓
僱
邦
馡
䆛
𣰦
ヶ
席
掴
𣿞
蝇
蔷
狡
脘
恝
裬
文
弴
埴
纶
攔
泞
懪
rights
##ature
##bert
もみつかっちゃうかも
延
##ba
膠
off
佢
work
儀
links
##gh
緵
嶆
苌
䙚
簩
踩
##2017
㶁
蜑
a9
gdp
館
輒
##qq
櫻
##bank
靸
牢
导
br
摺
茝
趙
憏
旿
宓
郢
continue
方
delete
欙
攽
仂
莤
垓
##gar
频
坑
當
佐
戆
##ました
窑
ｂ
埳
枇
宅
礀
白
##ctive
敏
坏
灑
鲕
婶
对
common
弹
nbsp
鵣
裈
93
苞
👍
闾
秽
裼
𠆩
琎
武
##ax
搯
脖
偟
蜰
蜓
妩
猃
棨
≦
瘐
屧
轲
迓
##man
games
588
錍
##uo
狧
禳
オ
歯
簫
蔑
ok
ᅧ
##cord
##rex
湗
卜
沗
朮
皛
にこ
笇
沺
けた
孪
壝
缜
蚣
鶮
礅
忪
徕
嚵
尋
ｸ
禋
栫
蟲
めて
true
cover
钤
cms
cbs
溘
110
ㄟ
罞
腊
㤞
歏
哇
gpu
糍
鲟
澰
誨
隴
audi
譝
藖
023
##ley
##am
##ミ
adi
６
gre
啟
##る
頸
311
[unused91]
274
箵
com™
残
襕
钑
cf1
整
粣
峮
te
tokichoi
㴞
鈌
溝
𡸅
[unused87]
了
仨
summer
deep
##berg
瞒
猋
ˊ
祈
芴
囉
淈
虒
畝
闔
##vo
䊺
矉
倅
譎
黉
胧
蒇
##lee
祑
僽
軾
扈
如
𤍜
济
焮
𦒃
犀
𩃔
凄
哒
芻
舷
潜
鍜
𩤶
儡
癯
勒
㩜
冬
詼
𨵙
婷
铂
乱
wap
crystal
㷭
提
idc
##get
cheese
煽
鼻
畤
煲
du
rq
3～5
媾
副
郡
孕
≡
凫
趻
煉
はしめまして
魉
⋯⋯
囧
溽
替
##ers
臘
卦
り
1959
⑦
anti
##des
意
##tor
瞰
##next
##master
讫
san
泱
酦
鉤
位
撅
孳
匼
垡
##47
喑
burberry
援
瞁
宰
鸃
櫥
108
柢
抎
䑰
lohas
檠
##d
1700
葆
##press
嬌
孲
雑
岯
痗
劊
袭
##um
##rma
怊
寤
protected
##ving
宗
##ors
姁
績
填
賊
叻
##times
process
薔
299
淠
305
萩
坜
繳
daily
logo
碰
钦
吰
瑱
ц
##てす
qt
攸
𧉒
º
##lr
蒟
##００
叙
斁
慷
嫩
㡠
箯
団
泲
鸬
tripadvisor
⁺
伝
##jing
鸊
database
恆
##へて
豫
兀
蕬
順
dior
槟
噫
鳦
祊
gtx
谽
みてす
檯
輤
璪
訪
翣
仇
诙
偻
篖
粔
𧬨
鷮
碣
柷
ᄂ
疫
##tant
原
筮
悒
摁
978
钙
㲹
靧
##ga
筤
杕
瑀
荩
恌
r1
伎
075
藘
ling
—
##ric
412
颍
bigbang
榫
杌
卒
輁
𩰾
翘
##35
蹑
follow
鹱
繹
砀
漎
雚
[unused45]
懸
綁
##url
fantasy
のハイト
憸
怍
180
##ead
𧿒
䕢
艙
慳
sa
趺
䤴
哽
玭
缒
觻
虹
瑿
槍
荘
3g
single
ワークケートの
泓
恧
##ng
##ません
ncc
埃
wam
ん
块
斲
##can
匡
𣚃
case
报
舂
兟
韧
##ｎ
馭
##ｓ
䱥
废
儴
渠
逋
胯
軟
##82
樆
詛
幝
姣
筋
contextlink
貼
札
莟
濘
対
艚
盏
璅
牁
573032185
霎
洲
批
擢
2m
##100
漨
储
克
礽
point
棕
##ular
揣
骢
tee
疑
ᅡ
msn
playstation
咀
ins
俊
sale
佖
子
[unused89]
user
𡼡
ｅ
亸
巖
帉
淪
322
##ぁ
藚
酉
恂
メ
gpa
經
衫
柜
巇
ferragamo
dnf
##ster
狴
e7
饘
势
揚
枹
koreanmall
顛
壳
轳
捨
##fr
蟛
##ile
墓
鱊
楦
靈
fi
倨
便
计
䳇
##xp
##ide
##tan
怔
鲒
屈
蹤
step2
崤
羫
盅
☆☆☆
bmw
iso9001
闽
蠮
##t00
饧
剤
墟
艖
暨
掭
滪
##sa
鍮
鏺
swift
𡑞
快
鼾
痒
觸
##dt
峯
妗
骘
湙
スホンサーサイト
兼
錐
褂
867
卡
示
㱲
1982
層
纖
脅
夜
𢠢
烤
骭
##いい
螀
##yn
350
##ald
hp
籊
饱
嵤
蓖
錾
逐
勢
畫
碩
##lle
1400
##lts
しく
ム
鞿
薿
瑶
忮
闭
婞
㕙
箅
##rite
䠶
盈
ken
icloud
dream
##eng
室
黏
粕
礜
##rman
蠜
矆
绣
排
滴
骙
1983
##rie
⑷
，
cia
锷
瘅
library
塩
坁
忺
↗
稲
𠖇
疔
dsp
介
浯
睘
蠛
淍
坩
焄
靮
z2
眑
焞
襮
檢
忄
䌟
韬
##post
westbrook
嬉
析
g9
髬
廙
honda
焼
梮
瓒
##15
杝
international
##bu
images
䃜
漰
测
##370
掇
従
汹
鲳
蛎
china
##tax
思
螓
麼
证
晶
稀
傧
faq
cnc
vista
蝹
绎
穂
刈
lin
綫
擉
濞
戭
耳
搰
想
捌
##gma
##gan
梣
##ag
鹃
鼛
鉅
赓
襄
佣
谘
俛
騊
焰
อ
ひ
yougou
緅
練
盩
讱
1882
歘
榨
垄
砗
崩
榜
覤
體
减
㝛
8000
##～10
crv3000
いを
抉
喧
ってくたさい
ᆻ
畑
##○
2900
冀
剎
疇
弛
蟬
𩨸
涘
unity
媅
3mm
鎏
205
适
𣕕
𣬬
藹
螞
鈀
窗
啕
愉
怫
宬
怛
擅
褣
得
饐
㳙
碧
##ning
酢
髀
僾
菟
vip
㩻
柮
㈦
##ct
118
苁
檨
msi
鹔
哨
蚏
ᅣ
title
秫
甦
踖
field
⑴
wikipedia
秃
恒
僜
汕
临
蕪
雉
葶
俎
##ste
##moon
髮
媱
瞩
暑
##ude
"
盆
鸥
dvd
套
##tr
㊣
址
g6
髴
##ria
２０
##ship
嬗
##nts
哉
創
財
姤
ettoday
##ince
##ように
慢
栯
##joy
ba
現
颠
枪
厨
䀆
邽
simon
县
au
舻
蝠
榖
譯
朧
黐
##gio
##rf
ddos
嶙
𡹙
[unused19]
##hy
锵
1929
鸰
沜
##ena
該
wall
爝
chris
##ium
窼
驾
##ar
髿
鲽
news
nvidia
圈
缌
##flow
渤
咏
罶
病
force
shirt
憺
鬷
喀
money
##ien
𥉌
##bscribe
段
苎
蚖
gov
ef
籦
曩
母
##key
籃
george
##gt
㖟
珂
蓢
惊
豇
andy
嬸
metal
塢
hard
现
ipv6
缦
##ara
噀
猙
##ze
𩩉
nice
輣
徇
ا
謾
𢘍
磥
揎
饼
mary
歧
##44
##ust
瘫
湒
瀼
赕
霣
愷
##lis
趣
夭
误
##ty
挺
裏
凌
凶
礒
栗
纻
net
倡
俠
霰
亩
㔣
♡
麨
跢
1995
##54
齤
繠
门
滿
簡
䃹
has
菵
条
麋
翍
62
ag
耙
挈
䙰
䯻
弔
犯
䏑
𡾲
毆
鯉
のないフロクに
采
镶
machine
宛
痘
䮍
king
「
rich
妾
阗
##bian
剧
哳
乾
##icon
卉
ecfa
顺
裹
⑵
ᆼ
敱
qe
咎
[unused39]
玛
貓
勐
齿
4k
friends
炯
κ
晩
if
剋
辽
草
嵓
躇
䰟
r8
蜊
rna
tcp
踸
speed
攴
蒸
贡
砯
蜎
僎
ᄎ
垚
惱
openload
##ging
詰
center
exhibition
bl
嗚
ㄥ
釋

舤
煨
った
镣
梫
｛
䟎
sohu
慟
馘
𠏉
晌
ed
醜
憚
玑
##gle
瞡
赭
嗅
扉
匏
這
𧤺
71
猄
1280
汊
説
tpp
use
堰
煼
##ments
鞴
financial
珈
憙
槥
蟻
绛
怆
~
fc2
债
427
劻
870
spa
獶
vs
邝
spotify
谂
jayz

睿
喆
sidebar
犦
##ision
阁
5k
堺
##ハー
##ation
amazon
摀
曹
则
槃
坊
mems
ə
##r3
㰖
3300
澨
tvb
##mc
磝
##ike
兒
礫
##サイト
america
兰
𪘏
鳀
艂
儷
##ator
↔
悔
也
願
颈
佗
cbc
idea
眉
蹯
沙
course
柬
壖
°
視
遠
售
鸓
galaxy
▲topsep
懋
賽
鲙
桧
変
##ヶ
阴
[unused48]
㙠
𩭪
诼
蔓
腰
硭
##gen
帘
##ろ
##aw
mx
5kg
gap
[unused56]
𥝧
啦
綄
庐
龃
𤄷
贮
諠
ᅦ
䩨
b
瘋
䬅
406
school
抗
騠
茞
𧿁
闷
腾
はすへて
舣
##mv
蛭
鲞
趨
甗
劾
禨
mhz
##ads
壬
嫦
箊
祋
嗉
③
109
くの
歭
獝
もっと
mk
明
珣
##tm
##air
觱
##160
斤
##ham
帗
搕
嶝
##ness
##orm
1a
嚎
龉
402
吭
isis
箙
擲
塕
瀸
稠
壕
≧
136
帼
か
emi
第
##hm
侯
檐
惚
miller
##eting
##che
葑
璠
䯀
##ect
狩
泣
舋
mac
meiki
rakuten
沤
钵
望
宪
𠬍
欤
昴
廆
骤
噬
勘
凡
濡
墐
蔼
guest
眚
expedia
臀
揪
罂
ての
¥
伯
207
厕
㬉
㖀
彟
雊
筆
=
悕
𧑐
祺
##fa
獭
ms
拗
ios
赈
癬
lv
et
data
##cc
澹
滄
𤦏
3000
august
愲
楖
nature
跸
堫
留
陰
v8
淝
𧉧
488
较
蒦
##ink
熸
ては
耰
鬣
埔
长
奕
踢
慨
锸
ha
##ery
art
攲
磳
惼
𨔝
崛
窪
build
貊
##rk
𦫃
asics
哭
綪
渱
民
伭
藓
㞦
荧
抖
唸
沄
啅
㼌
䔲
䈎
萨
屮
奔
罫
螔
浔
亟
钮
蔭
ig
yahoo
125
羿
戽
橇
湊
５
激
dhl

132
绷
32
##72
pay
璎
喂
姍
いお
瀇
檎
潛
媽
躁
##za
魏
閘
113
霱
について
掘
裋
缡
符
##view
韝
钒
gmail
肓
##tone
睫
张
誰
疡
##ｂ
ㄋ
esp
詟
冊
￣
旦
踽
劣
屋
固
涔
苓
䎫
227
莘
𩓑
砫
卧
伽
625
斌
艟
属
瑋
䦧
燥
籓
冉
16
ᅥ
photo
fed
液
##rea
箐
脩
鳄
蝁
𤝞
嫵
隠
𩭏
𦢩
##hu
悝
禮
台
搣
𨗳
硗
熺
鏖
腸
蜧
廍
犉
颐
卐
餍
葦
##up
omega
啭
kbs
580
唠
蝪
狷
460
秒
miacare
达
parker
满
齵
珮
緊
轘
轟
sarah
缔
獯
os
耀
柲
帛
##05
##my
蛷
嫉
殗
##ql
阸
懞
pmi
货
隕
渔
2～3
##け
##he
漼
359
丟
厈
ti
嗪
晦
侑
菭
嗨
ff
𪐴
绅
etnews
grace
２
1912
##ded
𨛦
##ang
塳
涆
隃
黤
蜉
蔯
##ats
##body
靄
宫
稚
##live
194
媞
貶
峱
搀
徹
謼
賠
##ime
珶
怵
job
䦱
掼
狓
炉
##のてすか
##ic
聩
谎
粞
蓧
邕
屟
卯
䩫
炅
郊
韸
≥
399
嵃
耎
藕
谼
ｼ
jeff
饭
㔉
鏦
玦
阎
2020
䁑
docomo
譲
𪅙
傅
dll
您
夬
䬀
1901
古
爸
1896
##ess
寣
䎒
拯
により
iot
屝
##fs
顼
爭
滦
龔
䉫
├
偉
##ina
##und
general
嘲
min
##リー
掩
##hoo
押
##op
4gb
赖
喘
##そ
ftp
##なら
肪
劵
martin
舐
taipei
窥
斶
阱
悼
出
浅
廠
觇
70
註
1934
却
普
瞬
峗
虦
スタッフ
捥
ec
甹
婀
誵
嫣
楼
鵲
虫
醞
911
space
samsung
㷀
跦
觭
緃
咯
760
駕
醋
萃
桁
connectivity
wordpress
琁
悲
黋
悻
铸
57
狞
392
轫
謱
canada
襺
踐
road
荻
##ova
昈
䤋
硱
缠
岁
迟
円
111
聪
俦
洪
儗
径
admin
carlo
##nes
e
##←
雿
囝
<S>
渟
##iginal
潩
⑸
壓
io
sns
錘
145
奎
ヘ
雒
在
識
躣
俩
换
危
绘
bc
17life
赜
鋘
羁
瀡
room
拧
楗
basic
羡
steam
##ever
lifestyle
cell
##ans
550
惘
简
瞱
苄
嫂
##more
奴
楄
蒞
铻
溜
跟
撐
##lvin
戾
踬
鲰
闹
命
壄
ᄁ
褕
窌
views
hip
葬
腑
㷈
seven
comment
摴
td
浊
觿
笴
潮
梭
鬇
no
嬤
l1
來
##ene
maria
##jun
帥
傫
牦
瘈
瘵
5v
栅
揥
頼
靫
蚱
n1
壸
##ᆼ
濮
##ox
屺
sound
matlab
##ｒ
嘻
逭
セ
煌
角
ㄛ
##kk
杞
襘
１０
簶
蝨
僶
若
讳
我
猗
prada
岪
駚
闊
してくたさい♪この
##at
轖
寓
顎
##～5
smap
羃
ball
howard
嶒
磗
ben
1922
躉
𥰡
逸
珌
##97
赎
廳
轞
嶾
裥
𩖴
㥾
鎊
##io
66
兮
與
庠
岈
吾
12345
燙
##een
嘸
##oman
纤
瀨
傸
strong
##rp
屉
镌
漲
##ロク
膡
溧
161
寁
[unused12]
滙
##gb
鬝
簸
diy
𩨨
錞
##aine
pm1
峻
rewards
雁
跒
atp
舀
coach
槽
手
##mate
祻
睦
sunny
##nger
著
棂
wan
##van
蝮
觑
呆
185
矍
动
耸
ヨ
245
sui
ltxsw
穄
蠶
1897
埒
界
矚
睻
angela
某
噗
swiss
躠
big
1915
祝
侪
##52
凤
窿
鍺
𣙜
䳺
谅
齁
择
饰
㙞
white
赩
襆
籌
win10
润
矧
隱
##ce
䤹
閱
あり
pantos
璱
颯
373
衙
﹚
86
small
bean
娑
滢
灂
茯
謙
からお
彊
orz
誅
蘖
##ves
枅
屬
miui
179
##ける
level
䰄
辶
軸
360°
鮿
涓
[unused94]
≪
##ad
邸
陾
1937
氉
羝
幅
贤
鑼
walker
鬳
賓
踾
扺
蹍
php
b3
见
廥
漇
菉
瓬
傍
沨
姥
pv
inside
枍
japan
稗
官
脲
谍
##ique
26
農
##google
䶂
緤
鬑
bas
漁
廛
秩
佤
塼
镗
癲
てす
嚨
狿
怨
辕
赉
㗅
熠
溲
##db
滂
鷉
虉
##ま
铐
㾌
蹀
殊
1895
part
踵
廖
趴
䆒
眛
棠
䰅
𦩆
蚀
磊
卸
柸
襭
淜
談
須
鰍
tim
谔
鼠
癒
瀟
郦
嚴
臄
##wing
杴
pixstyleme
##かな
菖
樛
锴
㿽
ceo
勠
䦰
##her
糦
佬
嫫
ャ
檬
唵
𢾖
[unused59]
𩅨
sogo
я
籔
餭
涞
严
甈
慮
na
##eep
娶
##25
⋅
翼
豨
厌
燮
t1
韣
忍
菅
蕎
踌
狲
倚
396
妥
曃
agoda
墜
123456
##ire
暮
绁
跨
臊
鹫
叩
冢
[unused75]
揽
f1
琳
km
葈
偷
臍
牒
##nse
feed
鬘
3t
鼪
飧
ᅳ
鉧
幧
银
##gs
𡺸
panasonic
徼
旃
䱜
掬
##max
囫
剡
扩
薐
尝
ヲ
ib
##sch
甒
宵
尵
𣸦
##6
蝌
rgb
済
psp
c919
堕
嶛
楢
楫
bi
061
證
##った
突
車
揸
xddd
议
囔
峒
肖
稡
蹭
誉
虧
禗
network
燔
郵
cma
遅
爆
北
##lie
##z
s7
挎
孀
藇
pixnetfacebookyahoo
嚼
燠
懜
昭
皃
駽
振
印
食
歴
醣
飲
麛
餓
155
image
440
##bia
襜
飒
磨
妠
熔
啻
𢲞
鉄
關
焘
或
盐
龐
邑
ᄏ
剑
p10
昱
㔢
##ement
𡎺
瘼
闛
耤
pmid
磾
count
[unused8]
##ke
鄏
㠂
嘹
铧
dd
穇
圜
∮
坼
诒
啄
榕
陪
砉
ᄃ
tower
start
綴
##wei
堮
1918
宀
搒
榸
頓
pin
𤄬
346
裰
咱
x1
穊
伙
咭
𡺑
㐲
24
娗
乜
200mm
ト
儇
袿
驈
翕
𨏥
忙
螯
潲
髼
束
##kit
ro
眢
囟
磈
club
222
1911
屠
鹹
get
䇢
㫚
滓
鈎
css3
㞂
隥
理
啊
蔔
wong
肭
ol
躯
𠎝
##ウ
郐
躍
topios9
篹
##st
逛
珞
㹱
迅
詠
臆
ver
126
廔
憪
mod
##uality
雠
極
ui
茄
扙
##firm
驿
引
☞
銘
筐
##night
##hin
饍
誹
##lace
##３
##ニア
同
青
𦧈
枣
噁
嵬
擒
island
##ろう
沱
##oto
漸
384
##cation
祠
妖
淌
##ー
##sia
琢
习
輖
鹾
垞
纂
瞞
888
崦
０
edition
𩞾
栖
group
倓
惩
緩
貝
1992
腕
娣
bytes
墄
##120
鵴
蓦
缶
撼
鼲
恹
863
平
钢
甑
鬨
砖
when
##しています
g4g
1927
椓
640
芓
矲
黼
肥
胶
弃
刘
咗
遂
watch
##tb
姊
##aft
说
fandom
齇
3600
织
䲨
崽
栒
丛
傺
过
曄
rss
晡
310
好
af
秦
𡾴
[unused99]
膟
ら
轇
語
論
驮
剪
𣸩
跃
𣵺
糒
胴
偬
皞
蠍
##wa
濱
驗
152
豆
靚
龜
##lla
##◎
stay
维
讵
趷
筹
社
醍
鵑
嚏
庋
淑
##∥
祜
b6
挣
戚
琚
钟
##ich
蓝
廫
泾
蠡
##ac
richard
##フ
貸
袱
##cam
153
shift
檷
﹕
蟺
兵
溉
hr
413
##2016
brake
ebooks
235
聻
昂
籁
夤
嘏
目
樑
410
ian
颒
motel
energy
後
笹
楅
抢
𥻿
msci
’
##dge
##ui
蕡
ホ
粢
for
university
249
namespace
娙
哤
貿
##vr
褆
｡
團
彗
鋋
柱
沐
血
時
top10
int
屼
渦
睬
麡
阡
袓
䡾
儳
ラ
彼
猩
酥
[unused60]
##tu
コメント
亚
俜
耍
ads
衁
厎
煅
company
nata
𦟘
##ten
钰
戎
措
㳇
盖
汉
##care
箬
峛
𣆀
虛
##cca
##lish
㠊
繶
彯
芒
##ape
ける
8591
咩
500g
趢
腦
275
黯
鑴
髹
糕
霍
539
億
歉
菱
媟
蛉
●
圞
恺
vsa
218
##ala
刊
瓘
谭
窮
犮
##il
絓
##7
𤘅
羯
窅
盾
郏
み
maker
weeks
栓
はお
懁
1250
馣
粽
##カ
battle
eleven
##as
100
蛚
用
bug
刱
鞮
源
玳
峿
api
郅
##point
30ml
ぁ
pixel
羼
##eg
癣
已
傪
巾
茏
蹻
cv
澴
竣
杂
涑
[unused67]
淵
edit
鮀
衅
郑
ｉ
節
##dium
庸
䭲
謔
systems
睅
狽
厏
鮬
孖
##ign
##ush
##den
藞
靊
阂
##lu
盻
claire
𩆂
鴳
ш
ⅲ
iherb
⒋
gi
岂
荄
晬
俚
酰
錄
栾
荬
s1
𦶜
𦚧
娴
驭
蜦
剝
##ily
䟆
撗
䢇
㡓
统
唆
嘁
墮
けます
筊
徔
蠘
息
躏
蠢
臡
##168
嗒
##cks
熀
䑠
榷
琯
迣
袨
默
陕
褷
published
𤏶
♣
峐
持
㲚
142
製
吽
缛
##tors
##ler
膢
ｚ
遨
robert
鲩
憬
0mm
074
㪺
富
姡
斛
巉
祍
糠
澼
晴
淢
❤
瀬
煇
薁
垃
荗
一
imax
犧
##mg
篅
腐
##リア
i3
犗
駻
鷩
硬
昙
蔇
脂
韪
慉
舰
锭
淯
烩
物
啸
囑
ir
channel
陡
訕
匰
##row
倒
燦
𨖐
庙
屆
戰
𠨜
掛
簳
②
阢
趪
鈪
颚
镬
scp
舖
##って
夷
跁
蠖
短
崱
##ast
窴
##ws
肽
桔
旂
役
悸
斧
粥
𣻳
ω
and
剁
惢
皰
丳
暴
票
瑣
ct
##vy
15058
诐
䔫
✔
π
癥
##ア
搭
鰭
する
感
tweet
鵽
にお
🔥
鞲
鳒
鴻
47
i5
##vm
雀
sina
ptt
chang
狔
遪
犊
葪
唬
嫘
戬
哮
稊
閨
𣗪
償
step5
甝
##ra
ㄚ
蛾
圪
50ml
處
蝕
耑
纸
陬
禍
戏
傑
哔
蜲
##bre
媦
น
譣
##world
掫
柍
什
みの
𣽅
訑
弾
30000
嶶
汐
軽
baidu
娅
涊
昲
饩
䖅
圆
娌
d2
ᄀ
profile
4500
joy
鷢
憍
繚
蠉
纺
桑
襟
𥥾
##ix
嗓
禛
箓
##lon
##ence
箭
別
chi
睺
jonathan
##po
4800
[unused36]
癢
湃
蹊
226
cam
##mes
筳
猥
箔
##27
懲
git
槻
飉
肴
堡
涅
扅
决
澗
胭
han
##hur
罕
嶓
ly
穮
賦
yam
316
損
颊
飶
𩞯
摻
笄
𡰈
検
㠑
獺
##ding
掏
廌
##mark
权
篬
##space
蛛
##ews
##lm
囲
摘
蝫
猱
ع
嗬
＆
攧
鵛
愁
川
缿
##and
罅
骁
猡
jennifer
悵
599
beautiful
廉
太
apr
宣
褧
荑
tea
ロ
謟
hey
zoom
簟
5cm
呓
忝
驒
##ft
鴐
法
畇
瘯
湍
闵
隊
##かあります
嫜
褊
lost
non
缣
苤
畐
餤
𤫽
崙
醹
##37
acca
oppo
｣
樫
㬠
ς
##cn
ping
借
发
ヌ
尤
撓
瓊
𦡂
貒
锂
##tation
湔
##gi
蒼
逡
∞
骸
渑
觓
旊
遵
悟
##5s
犠
枫
蟙
㞚
盹
﹂
pad
翯
孥
##ial
較
cambridge
虢
筥
m2
paper
啀
monday
鵰
z
蚵

偢
養
蔽
蘡
谓
##mit
珐
舕
熒
涚
韊
繫
酌
呃
巘
茂
##ナー
jj
##mer
设
##su
鼚
258
５０
绻
chen
戣
𨇤
歎
march
tiger
吩
##word
扦
﹙
剉
欷
劂
敧
pdf
fb
##nn
©
铫
##mm
last
稄
ge
17
俐
稼
驚
䱷
佪
礡
##plus
hit
##iel
酒
動
係
techorz
chanel
##wen
私
罢
測
褢
澄
噪
瑙
ᅩ
15000
thunder
喱
♠
䢴
free
贽
遴
object
紉
雏
淂
##w
閃
壘
熛
鹞
蜒
坪
椽
##®
engine
舠
坠
䃔
稟
h5
##lia
鬓
##we
x9
䘯
喇
絪
策
犨
赋
挖
##oc
##ot
痍
贴
<T>
##talk
昽
城
淆
霢
獥
丢
鮭
殑
iphone
apple
##anonymoussaid
乓
client
es
##men
幰
钊
𠴈
箨
夾
擠
鬯
锏
##http
##pl
𩝐
桦
伻
✰
祃
png
f5
##rry
扭
腼
篾
濈
mb
##text
[unused43]
䌥
nand
贶
讽
棼
34e
蘪
pose
䁹
励
昀
孑
碗
銀
12306
塽
飍
㝅
勞
輟
ﾞ
㕧
##31
g5
砺
癌
楞
铺
篂
凈
##con
兌
閥
國
##kg
更
铰
䧿
那
fit
ap
謁
兖
祧
騟
##over
抃
黕
漕
鉑
leonnhurt
煮
歳
煓
嗈
褼
+
sk
219
張
##lic
抟
茕
刔
情
謀
600
##ish
崔
##lent
脍
鲗
##ます
徵
##sh
箩
笠
芜
飯
##ts
蝑
釘
咒
とは
said
亂
砑
se
盜
##ック
猰
open
右
詑
駪
䚧
𥅆
邳
##ker
橦
运
191
唻
谞
★★★★
鷎
3ce
飛
鉚
蓓
寱
鹨
裤
蒔
樕
幟
joe
##┅
震
穷
杨
域
背
蹙
圭
蟄
嬥
##tel
陴
楝
notes
##re
##nk
鹿
谜
姝
瓴
昐
##mi
觕
轕
悹
餫
螳
峋
䃭
糅
eba
帤
苴
偏
details
燖
痞
罃
这
酎
襠
##per
##gg
翙
㴩
𣢾
𩘟
##count
謝
聑
371
☆
ㄤ
撵
tcl
connect
唫
追
诽
绉
堁
##ark
frm
桋
259
朐
㘖
砭
滌
魔
汔
✈
尉
㡳
𢱲
s8
灼
edm
pre
top100
硪
306
嘛
辑
𤓉
・
510
雴
寨
荼
##mber
犏
憁
𠤷
吨
阖
詾
come
戀
賜
逗
诚
汰
筜
待
ㄒ
圠
汶
芉
′
##ck
墙
spark
溆
㗵
せます
##ience
颹
䪫
𡜮
esc
soho
枨

匽
啍
##ことて
楹
jquery
yi
455
斨
咚
never
氮
衩
1900
洗
驴
翳
霭
率
铆
霊
溱
父
356
𦪽
##work
檄
釴
闼
畚
監
僦
馋
桄
銶
睎
𨢬
旭
雅
霦
拚
„
##1
express
禧
ㄨ
n2
𠴨
违
np
##als
喗
##ov
肾
[unused85]
伟
絹
椁
##ホ
𦨻
南
脞
𩏶
3800
𥯨
盡
##oper
顤
瘨
##ant
衡
木
夕
镀
绫
疆
锌
蛆
wto
鉴
舄
欂
##りの
琲
荷
絻
nownews
final
gogoro
嚥
䞭
##mll
855
嘖
することかてきます
蒢
西
婓
𡇼
)
襻
廧
hold
gmt
饶
##desk
椳
龙
堈
拴
裙
てきる
##ted
螾
磩
貅
濕
结
缃
譩
ュ
飏
矯
濧
学
臻
㟧
悌
晒
沚
穋
䕩
枘
辙
八
##2000
迸
璐
承
左
爺
square
诞
反
嫪
翩
嘧
袍
850
翦
诱
峁
华
鴷
##dk
れる
𡱰
改
助
鱎
醳
β
诳
##li
897
戳
##ト
##ek
銎
##ob
喍
噞
miss
articles
隧
collection
铚
礼
蔎
髒
菤
280
⑧
谙
##ｑ
掣
冫
pos
狼
伏
[unused69]
湛
瑤
dt
##☆
谹
021
##drive
铍
綬
##ment
美
䵝
钴
##zz
under
烏
怿
wind
dcs
cut
体
岳
皲
吸
绑
帟
嵥
燐
𩆓
尰
嚃
崇
缀
[unused71]
壈
跳
树
tab
紅
##mobile
970
倘
终
龀
媧
䠥
潸
身
茀
was
028
##rence
𣗳
炰
誕
找
男
##くれる
阙
僪
站
猲
瓶
∟∣
儢
骈
攓
觡
樠
卟
1906
2015
刅
霸
鑲
蜈
134
a2
彡
挪
臼
airmail
590
𣰆
荳
傚
禱
that
talk
殞
蘦
charles
雱
骫
筅
场
fifa
♥yoyo♥
𡵨
戲
苕
罌
递
眺
輘
饺
##ver
2b
why
fks
漍
弯
妒
镵
夘
167
𩖼
喺
𩉾
凰
衭
骛
薤
毂
忘
##17
1941
##ree
##rity
鏙
##out
澎
汪
##68
##0m
蠕
治
##other
杜
睊
嗢
ร
搗
型
❀
䨥
##af
凍
development
崥
嗿
戗
ray
污
al
鐍
肅
走
裲
秀
vdf
矰
嗯
徘
[unused5]
賬
殡
129
toyota

##i
柒
嶬
##40
汭
ml
镐
筈
袈
select
bank
諭
s5
##ket
##pin
瀤
頔
jane
賨
##v4
愯
諜
釧
閔
𣝒
##dr
櫩
bob
爬
艳
瘰
溫
±
估
factory
1988
##mic
誼
寒
＾
##カー
让
綜
##リ
郙
quot
##lab
䥴
arts
##ｔ
##64
sao
dog
牉
閜
蚁
㬢
##ories
阇
飨
trivago
贯
𨺗
韫
蒨
type
錨
滈
艾
512
漂
诺
嬪
諫
膈
309b
𦨚
e2
碴
花
絆
##ssion
禯
かある
area
真
坰
螬
狮
帧
箱
㶼
ｔ
##bell
倰
94
版
㳷
215
旧
樺
660
篑
芥
阆
⦿
觫
绳
sc
杖
搦
𡡉
罘
奡
剔
ч
朝
逢
剨
㗻
##69
岱
伤
human
崷
曲
##urt
鼌
骜
䶎
泊
毢
诿
show
育
鵁
邞
[unused18]
da
关
歐
混
？
fri
e3
kit
瑊
唳
㢝
噼
されています
##ち
いします
##b
蝈
沅
涤
##ne
螽
mode
斎
262
343
磤
630
枌
𡾋
擾
scott
罰
##ream
𩾐
弄
诮
撬
彽
272
耵
龈
辅
蘠
㘰
06
艛
𩄡
胔
mwc
紀
##へ
诤
輕
埋
褚
ssd
##きた
懒
嘑
护
叭
鸆
杳
阒
𣦼
郎
sg
309
茑
濁
##っと
cool
愚
##iner
踶
##ies
痕
罱
茧
耗
僑
##labels
淼
跬
泳
�
萄
颲
herme
柠
漬
秺
缋
衠
眞
其
##くたさい
442
酷
驊
袥
鱈
蔫
䃸
lisa
穟
珇
珫
輪
掔
硡
徭
冲
踹
䀣
tiffany
120
郈
丘
幹
漙
焖
鸭
x6
俄
摟
electronic
ⅱ
mount
馯
韂
隙
廃
執
50
聆
1939
ccd
鞋
捭
mc
於
[unused70]
fps
gohappy
玒
鎳
鎮
㤯
[unused80]
匠
消
蘹
埌
廷
standard
峣
列
坤
鋈
艇
骨
vps
颂
##itor
痁
media
赦
騕
釿
303
佇
##dc
梟
圚
劘
外
##tv
146
龌
熌
翠
eos
箪
701
##ette
##ito
娇
鷟
珓
𤫩
粝
娘
磕
掐
澜
寶
聃
may
㨾
aspx
顶
三
页
訴
𦎟
偃
処
莞
隻
##07
謹
羲
褙
锽
獸
惮
huawei
banner
篤
矌
輔
i7
[unused33]
噓
袝
鈍
嫡
л
芟
↓↓
卮
鼋
銮
river
isp
蛬
況
泵
䗂
六
禊
祿
times
hbl
步
𥁃
篸
ᗜ
瑨
戁
戌
acg
旮
##tive
124
##via
閛
惕
look
厾
鹥
頧
##lp
314
棟
321
睄
殣
骞
ips
齽
臉
夋
筛
憾
嫏
募
撱
墉
懷
櫸
煿
蓹
##it
壒
脣
old
##オ
炕
淒
嫱
聞
##ound
窞
鼗
玢
颾
綍
匉
亹
徂
story
囹
kate
sun
н
跐
眭
##イ
ⅳ
diary
足
毅
1928
棣
烱
栴
##gnet
歩
240
筸
##pro
beyond
喻
～4
禘
笛
衸
取
買
瀵
鳿
ょ
箦
蹿
鉟
夗
猕
嚧
牲
眯
烬
珑
惇
咮
𥎊
nexus
杭
mg
var
##dp
##かも
灉
跹
侻
plc
饈
㾪
澝
怃
侍
弘
喚
补
酘
訖
##010
藙
learning
讟
vfm
alex
alphago
⑩
濿
飆
mark
宇
佔
欺
桬
##board
蠙
䑲
惰
𪁽
€
▲topfeb
netscape
兜
298
bonnie
买
分
1998
齘
康
捱
夔
肸
夐
砅
visual
years
唶
广
臣
××
际
肘
荿
蔟
狭
鞏
ming
艓
垒
舺
谴
綎
馄
plus
禅
訚
❤2017
竲
饤
啶
phone
𠗌
css
##sm
##ques
囗
睃
李
癗
寧
棫
皴
堇
滑
缄
ス
藾
毨
104
茷
縄
摝
義
蕳
譬
瘍
𤂆
powerpoint
尊
幐
鎬
腽
鹵
桶
絖
窃
##cky
f2
愎
钡
请
舾
饑
蓼
蟭
##all
##さ
髳
##ug
♫
聛
恓
爐
卓
狯
湾
圃
疻
屡
缳
擀
蓄
鞶
绝
瀉
##ros
##side
捕
劑
##する
##キンク
崶
141
遙
13
##ol
source
傱
陲
芭
amoled
𩑺
₁
錽
紐
瀕
363
拈
堪
栟
垛
week
濏
裘
珢
蒲
氹
##ani
zh
1893
拽
ｋ
菡
1100
json
庭
欋
煞
踥
ns
奥
𣪫
播
馎
閹
蒥
甥
粼
surface
瘥
饦
梆
跤
効
趄
##group
鱮
絭
熁
2022
4a
鵡
篚
阃
power
蚂
菀
鸦
鰅
捾
137
嶭
否
20mm
ρ
##ens
蹱
荁
箧
矱
##der
姎
赂
巳
挫
##fig
打
䬙
哄
麃
窀
侃
涎
莢
觏
专
沆
燻
悷
★★
q4
蔀
蘑
漉
秪
囮
##た
″
溪
top
##sent
側
鉊
䍥
糈
㟹
顫
##ology
朓
襞
ｈ
殷
侷
藟
奷
##uy
烺
からの
苃
##tein
啓
榉
296
羈
醷
289
𥪡
霃
cream
嫒
襼
裯
瑟
れ
枳
掀
偌
牗
中
亲
拡
吉
煟
##zo
薑
嗥
加
鮮
劼
睱
陁
珵
範
秠
瞯
片
盝
唔
拶
䴥
姆
痠
##tical
603
##45
thai
镈
爷
揮
ee
昶
[unused78]
frank
痫
贪
虖
厦
飾
francis
##cel
腷
圳
management
嗣
##co
灴
铨
russell
longchamp
赔
髅
颦
淇
憲
122
呱
諕
炮
劇

曉
莿
##name
藋
缟
熏
瘝
サ
168
媐
＄
嘱
咄
恨
諴
纔
vornado
𥔀
䫿
繻
续
胤
鸤
腿
咆
顧
碞
餗
梁
讣
疍
湎
扆
說
隒
step
雹
alt
kic
檃
浬
色
肋
侬
丑
𪓐
##tta
##lling
襦
撈
萘
𥵫
眕
穿
蔹
▽
𩜾
两
1917
䳱
埤
椆
映
緬
湫
policy
╞
𤸷
6500
##ture
49
##lter
disney
餲
訣
菰
嗾
##も
##sc
毛
茇
##berry
##ん
##°
敦
fe
670
699
薋
計
s3
h
黬
輸
亵
蓑
f3
2012
谲
辆
##les
幛
半
yoga
campaign
1919
攑
憨
沼
噭
偞
俺
栄
ｲ
袐
category
革
潓
憑
ゅ
people
𩅰
扣
攤
崚
v2
濬
##けて
cb
銓
䫜
冶
骚
421
疁
##city
喓
涏
菠
162
鲨
轩
ほ
离
抜
茖
##ed
bd
鞭
𦒘
孫
鈕
覂
蜳
暾
second
𦍩
##わ
##bet
wedding
榻
弭
賤
珀
瀩
kanshu
牣
cr
creative
##val
玼
湓
猧
臲
䄖
泄
磉
矞
窫
size
405
##you
𩊓
挹
聯
臨
泡
篥
##その
exe
饾
建
诨
獾
烦
課
茈
寅
升
##ren
##26
##rcle
硖
儕
rosie
涣
##orage
##how
碐
裡
醝
幖
﹍
moon
刮
reserved
観
𦨴
餉
缆
绶
34
鸮
捧
氧
且
##ius
gc
簧
church
砷
##ston
►
鸀
曬
蝗
ˋ
1mdb
歼
入
酆
䭀
襒
掎
酖
窓
跡
today
䚢
##sn
璨
##stin
皦
𠜴
粺
产
棔
捶
攞
泠
寿
vc
镇
##chi
##ira
swatch
襛
342
尿
捘
族
④
肉
浠
臓
躅
鄢
」
mu
没
##ale
叢
##ei
##れて
骃
[unused49]
唼
瞧
僤
𦐂
鲮
##ert
佃
跌
妷
帖
100g
##tina
嚕
笥
笐
䲹
曀
butler
溷
𧔥
鸾
帨
嫛
綠
access
趡
鐀
雕
𣱁
長
間
驷
andrew
冑
砵
檳
乂
★★★
蚴
备
java
魄
ip
##ere
骍
##rect
袛
佾
昃
虡
𧦬
嵺
114
advanced
鲔
棁
##day
阚
滚
不
鰽
洏
wei
㙷
赒
燄
闺
摆
覢
畲
𦩘
铲
##zon
ru
靖
毓
##unge
材
謏
570
鮰
奫
頭
甃
moto
摋
齹
穹
skip
𣄛
紧
g
##lax
216
１６
演
[unused55]
蟑
𥲤
娲
壤
衃
梌
##ting
null
倖
梀
䪌
燿
葫
2765
369
轜
楬
##います
頒
撶
鹡
li
##ist
##ss
##89
楂
菫
聂
嘰
stephen
7500
chapter
僛
跶
𨴢
鹘
零
爍
oracle
029
𦈢
腲
耇
慕
偯
僄
價
##ora
洼
432
組
浏
颢
##mini
元
丱
79
tips
潟
逌
婊
325
[unused51]
簾
觖
辣
篘
∶
best
燭
tesla
嚆
咕
暀
1080
##ーション
鬤
禎
𠫗
楮
ni
gopro
ヽ
哿
丁
霶
敕
埚
罪
吐
姓
please
##く
嵁
藥
挲
䬔
迢
▲topapr
嚾
html5
##town
舱
沉
炭
##ris
form
儼
梬
骷
##ｋ
小
胄
硁
拮
澻
譚
solo
##lay
hop
1898
柹
侥
敘
##96
##sky
もう
踉
觅
皻
殒
宏
権
㸐
##ef
##lone
毹
庞
灒
迎
##ことか
m8
乘
稏
蓁
吒
篷
蛴
袪
繲
霁
蚌
蜽
𥳽
愶
ˇ
漶
燜
惑
woshipm
kong
黨
2030
ucbug
urn
##ear
瑗
pizza
馑
呰
杷
絣
咻
頄
穎
嗲
胼
いてす
journal
禜
歈
蝴
##late
納
wd
瘡
忻
禭
##ことかてきます
啧
21
x5
僿
䎖
##zl
き
漿
唁
墩
䑔
帏
闖
飚
46
閻
g7
根
贳
荭
puma
臇
##mann
㜑
##del
両
##own
##do
𨊵
妪
浐
##150
猢
箄
疖
挦
葰
鄚
##hr
д
呷
師
##eh
ps4
㷊
纣
磐
##pus
display
##012
肌
起
佁
射
掖
漻
捡
宜
105
ac
ᵉ
倉
q5
芊
熂
𡷸
祁
candy
擰
浓
腓
##73
154
嶋
览
圛
婿
𧥆
峙
屦
◢
review
139
alexander
远
醊
##reen
insee
䉡
58
棹
1955
##lin
洱
1m
艒
鸂
篨
譁
＊
缘
ネ
𨂜
帅
儘
##vin
nana
唢
届
吵
荒
▫
##ho
吧
緁
鲷
鍧
##チ
涴
耶
戒
##ann
疰
栈
158
51
㭾
彿
妙
○
菈
𧐖
怎
smith
かあります
咽
粳
c3
䓇
▲topjul
彷
沭
𪔴
緉
爰
㭨
豬
730
蚷
曛
险
本
鞈
835
##ｌ
##ule
朋
髸
になる
brown
奓
##fx
jordan
蒜
桢
慊
bh
##ader
395
碘
##ee
窈
輓
##bility
簃
𤢹
匑
粜
テ
卬
##trix
換
摅
##▲
##aa
莋
慹
㜮
厄
燃
㸦
骣
诋
♪
劉
ya
wish
辖
祇
陸
厍
plurk
驽
曷
泻
蕃
4600
梢
噱
咲
いいえ
くたさい
猓
渡
歇
晾
疬
瞾
堙
𣏾
鉉
𨬖
憝
捃
稷
鸸
嗑
歾
崌
簨
鄛
汴
沣
蘚
誌
##pn
苨
鋜
鳡
ぬ
庹
って
要
##ware
##ism
永
23
朒
≤
なら
羞
25
10
殲
ｑ
帽
寥
颩
滘
##９
坝
壹
そ
##site
瓀
mpv
嶞
73
颗
1350
卤
楨
hi
rcep
195
112
泼
帜
[unused35]
##ier
梯
夏
锰
筀
涩
瀁
筇
藁
酸
覧
##04
䑳
golden
拄
覃
辨
##cs
隩
鏄
tag
嵛
～～
1931
葱
陨
芣
heart
榣
綻
弥
𧠺
置
暂
瓠
厝
uk
##ール
◆◆
board
ア
剖
##san
螢
资
瓓
##x2
钿
ford
𦰫
帚
210
framework
𥱼
います
芽
┣
online
每
##ci
cg
[unused95]
h6
濒
靶
怼
縳
160
470
𥀷
咿
汗
jr
𧑅
萟
殹
[unused79]
荛
绊
酹
礴
笓
业
姱
鳕
1001
伹
260
冇
𢡚
埕
顷
胠
瑴
任
android
卣
##ung
tt
臐
欇
429
𥜥
##よって
围
浽
咂
✿
##けと
hill
##dragon
龄
cake
tue
细
催
goods
370
##ugh
绒
ㄍ
掉
餞
除
冂
揭
䔥
ta
伥
㮰
▲topoct
兹
帳
刀
ᅨ
啬
の
諳
炁
蕙
397
凳
𢱧
誣
pure
荽
萑
node
face
div
睮
｜
##less
皠
颖
景
伸
of
眄
monte
##fo
1886
𩛙
僰
鏬
灝
u
刌
咦
艽
羧
骄
airbnb
december
岖
茵
瀚
䳒
benz
䂮
徙
洚
capital
vdc
僷
繂
湿
剸
耋
##ious
仏
擬
##land
app
晷
ofweek
悾
★
䝔
极
1966
##self
謻
顩
虎
##ント
坡
滆
旼
屎
渭
胙
冤
鞦
##ter
洫
buffet
猭
侠
##ld
止
ft
q10
墋
祲
＝
视
箑
囤
apache
䍚
蝄
晗
槷
##well
駖
##ize
legalminer
躬
咁
;
犁
崧
庑
负
镒
”
柦
pierre
6000
㲉
菲
苶
膻
耕
逤
缎
ａ
鼘
蕹
011
䢩
烨
䋄
[unused65]
拔
vsc
sql
151
遒
檋
brian
whatsapp
128
砐
fans
黝
哝
人
勋
##rian
涳
仅
從
堋
网
𡎊
架
戊
𡏖
r
隐
噙
128gb
838
傒
罯
疝
鹏
艐
崑
档
ch
珝
あ
蛐
假
##hn
扒
烧
265
10℃
##～8
獣
侗
芈
硒
cs
橹
philips
dropbox
苯
message
s4
pm2
瑯
枒
劃
貨
243
饽
叇
睇
緎
睏
米
##m2
336
甸
水
##mand
4l
鸼
1936
湝
夸
䂥
杀
衤
戵
▲topaug
霼
垦
仕
year
獲
rs
岡
##ou
逆
骓
并
篇
厊
羖
𧙪
班
泒
楪
簍
穧
馆
囿
2006
ji
抛
kiss
旸
胺
釣
ipo
##burg
姽
丰
##™
恶
銜
##99
嘤
迁
ᵃ
鲑
黧
謰
秇
棙
##bus
d3
250
葯
赀
黜
佻
苜
巡
驹
鞗
偶
錳
髻
钯
##ight
苣
伦
暉
谨
寂
搂
戻
##car
375
度
##lines
胀
⒉
ｙ
孤
㻬
wwdc
──
urban
##ane
熢
𨁏
昼
枞
琴
𩗗
毼
##lux
翲
跫
氦
･
premium
1111
愛
埏
遶
port
445
1970
謬
枸
擼
珪
駾
𩆍
硼
践
橑
剽
螮
e5
万
𦌊
beach
１１
無
##urs
扛
䃲
浦
fm
撷
濎
阿
嗛
衢
high
鑫
驢
黮
reply
277
惧
font
瘪
柰
牺
繘
cpa
皪
效
姮
1tb
##ern
##si
嶊
覗
碑
睛
浣
犸
怡
cm
旞
冨
255
皤
𦦨
罚
抺
Ｄ
866
氢
题
here
泥
爲
顉
啚
1234
譏
蟳
英
2014
漏
珍
惶
値
拖
勁
诹
認
##tment
𤟤
紋
拂
帙
𩣯
1999
emba
yesstyle
柘
優
瞭
把
嘐
iphone6
っている
eric
rainer
踆
##09
蚾
捩
展
挑
ic
揩
犴
##ore
##86
䆸
怯
281
费
莹
fan
ve
酗
㬻
##int
u11
儂
泔
着
絮
翐
狂
351
[unused74]
澾
缇
run
𦉟
揄
郘
獬
spring
检
ⓒ
398
邪
赪
溥
葷
愺
舳
##xxx
闿
菇
御
txt
陂
秖
瀹
則
杪
鄜
遮
潏
曈
窝
瑺
唈
##ーシ
磓
⊙
eia
獍
陷
獐
35
##en
潣
co
㢮
偠
弋
髪
齋
ice
140
隣
狻
夌
婚
pixstyleme3c
313
709
other
suite
羜
ᄈ
媵
##public
雘
##vc
酱
遑
濲
枥
nba
窘
咧
。
さ
りの
㾕
##いて
##ond
潕
鯛
##cil
艷
虚
埯
力
##qi
𩅀
弨
亡
味
𨓦
y
siri
畾
墒
𪔔
格
麽
懔
##tw
鬿
余
骀
resort
奠
偭
s
抰
蟾
[unused54]
脚
亝
螫
窒
呞
榾
鲋
𨚗
offer
吹
即
菓
鋉
撲
嵔
諲
𢾅
者
cat
槌
p
von
㒿
昜
欠
aa
davis
崗
荏
玆
馏
f16
䍙
梐
䓞
鶒
燂
䔿
manager
嬅
ｰ
渒
塬
蘼
綾
沥
溰
oil
縫
##480
匜
##ume
热
蔺
拜
︰
corporation
饮
响
崖
瓛
啮
衽
豁
##dm
祔
穈
##px
诬
涒
硿
k2
善
game
吴
潺
强
roger
##la
馤
羨
阳
塊
屏
硔
函
価
簎
1910
false
捼
涂
稿
##ート
鹪
寐
∴
毁
潢
籐
bo
蕟
驉
sata
pacific
骲
紳
##id
{
john
偄
44
##iti
灸
駥
xp
哦
##22
bios
璺
𢑆
侲
隼
烷
紺
嶅
詐
242
1946
勍
啒
史
籬
覦
ghost
##ために
mozilla
春
甋
秏
辄
囡
贲
貞
飄
174
##pper
叮
棻
吋
lcd
𤈺
轄
##star
raid
tvbs
day
辒
總
路
辺
咡
138
㟅
きを
箾
戋
##ge
酋
##wi
㩁
滃
挢
蝛
耄
黫
δ
蒀
ゥ
兔
㞐
忼
536
鬒
馝
##able
癈
學
㔶
成
65
㟼
xx
薏
卑
螊
202
疹
甂
お
妝
戙
鋤
饌
镼
##lina
潨
操
ho
郸
儦
帢
＜
璏
穑
妍
丼
赚
瀎
翰
[unused15]
朏
裍
泆
汇
辦
linkedin
詣
膘
model
帐
弸
eb
佹
sophie
声
##oud
code
呦
靦
set
蒋
tcs
詨
鬌
阼
积
竻
奮
黵
醇
rmb
梱
塵
殛
贉
facebook
脕
臺
😎
給
十
勃
颀
喫
彥
instagram
嫇
痯
剭

##ia
軨
喳
麂
睒
砦
##sse
瀣
嫕
178
[unused16]
謈

can
礎
種
##ms
箛
汵
ul
蹩
漈
##light
鴸
𧾨
峚
twitter
彝
谌
经
廞
眼
##ティー
幸
辊
紓
ntd
鸙
product
飗
886
みリストを
蓿
腇
弤
𦑂
痤
word
annie
𠠫
帷
眬
而
筴
制
buy
fc
₄
艕
service
籉
を
♥
steve
і
1b
1884
躗
磔
獄
31
该
莳
₂
鳢
忐
寀
妆
呎
擄
##ope
##◆◆
せ
010
x2
遛
慚
テリヘル
競
こ
gmat
絅
硝
3100
鴂
闍
犍
鲈
williams
##bra
拟
悪
䬘
蔍
ssl
㠥
##ward
蹰
餾
ن
ⅰ
妤
萡
ね
しているから
科
沖
悅
##な
ios7
唐
鹈
揬
谡
㕠
飽
苑
餴
倬
鵧
㥏
罍
鑿
紾
膩
浍
win8
所
笏
愍
躐
↓
末
##e
瞻
5a
牟
416
噆
𢅏
㟿
蓋
羓
audio
恼
return
扑
iso
笈
薖
valley
晨
啛
槐
螟
p2
虙
﨣
橢
288
匯
vcd
薙
馔
𥉂
䰇
沦
㈠
嘣
噠
𠾱
鏴
稍
槜
渌
䎧
踣
孝
杠
𧎼
恛
㹪
煒
99
999
table
骖
prime
番
隺
喎
嬷
棒
##30
hitachi
萝
驖
涛
垝
折
＞
さんも
originals
bell
される
捽
槲
園
㑻
镺
蛇
嘕
疵
舑
戈
friday
茢
䨴
餂
详
槓
鸚
[unused20]
そして
芚
玲
桀
てきます
444
鼒
[unused72]
毯
▲topmar
96
獧
掤
轸
##tional
㩳
巧
尡
gs
513
november
don
慜
狒
圮
跽
318
淞
趔
騵
狵
踟
吼
瀑
释
艎
侩
厜
旟
傥
橡
营
##43
##cd
æ
尺
艿
釐
艘
葩
皵
ᵘ
暢
妳
駣
α
mar
捖
艺
童
決
桉
sms
##ello
rpg
絲
樲
瘴
fa
##した
##shop
刨
##uard
sign
nasa
绨
曫
瘤
増
emc
р
doc
cisco
l2
touch
鼫
334
煥
eq
##nome
##lt
244
仗
##ラ
ubuntuforumwikilinuxpastechat
杓
##raph
悢
trc
羬
憩
##sio
崃
荣
拍
詭
僔
耖
䬝
gr2
乖
硞
鸧
篰
蕸
蜀
齒
165
锆
蔗
している
report
弆
賭
䨧
韓
015
檀
note7
475
坯
oldid
象
㰕
唾
飁
gm
##なります
㠾
籺
质
䃬
恣
##on
啜
池
坎
##tar
local
e88
梼
鲜
軋
##ね
洓
擗
鶗
瞅
踷
籲
裓
thu
甍
赐
##rio
罬
侵
覆
115
葄
3
胹
惭
繞
泯
迪
##56
##da
瞤
😂
##life
##mus
謊
鉻
下
勵
r9
828
甊
颃
設
kiehl
coco
噎
祢
by
觐
蟊
雩
1986
觺
慎
允
晋
three
搆
328
eds
泌
瞿
搶
奶
ᆸ
1932
扮
life
nb
溶
鲦
諗
叔
so
儚
鸹
鄠
饅
胱
似
狗
く
兴
real
茗
ŋ
##ありません
0
隽
眾
##♪
hk
絧
攀
封
橥
##て
##hang
evernote
1020
渥
旺
萸
338
discovery
##du
##ctionary
[unused73]
莝
烰
##なる
brandt
no1
剳
另
瞄
鞑
阐
羅
丈
1964
##ｇ
##pi
248
marc
鲇
駴
仄
します
魮
澤
賞
汤
慬
滝
斿
la
##web
tour
伪
缭
dl
1300
601
首
ゝ
恖
搐
eur
］
咤
峇
1961
蚩
鵳
稐
𡍪
㤝
绦
陊
簄
屃
傣
##r
澚
冓
𤏡
pcb
点
day3
碫
冔
##jie
媫
##nar
崀
飼
##メ
惄
盞
##ure
含
燋
log
噤
惯
棰
泑
紃
##ass
槺
pony
澉
鳜
ⁱ
opera
鬱
胞
9595
酵
鄗
##lly
启
xbox
醚
嬰
騙
##ᅩ
欀
##hen
ㄆ
'
午
319
毈
辫
椐
𦧡
かお
瓷
##㎡
縿
𣲖
襧
gaming
颤
軍
day1
村
廣
script
繣
bruce
籫
住
cho
毗
栽
䫉
幩
｀
懵
氶
迥
##タ
6l
##ec
paul
costco
帓
铮
呗
㭊
扁
𢄙
travel
谪
濾
翎
鴉
515
轾
鮧
ม
僩
𨣒
鯓
凅
亢
嗃
脸
缁
650
##net
▲topnov
仳
咳
[unused68]
嵑
##com
蘩
贅
愣
嵰
221
／
##ᅡ
舌
action
##lean
▲topjan
稛
は１ヶ
編
繩
历
皭
蔘
覓
vpn
庬
㵎
##てきる
衲
籤
墦
窍
戢
市
##ンク
貜
狾
[unused66]
淤
彌
雰
謠
羉
ctrip
wifi
皚
澆
##まて
烟
婧
麌
湲
rn
卺
詶
竺
唦

偁
鞓
哲
偵
尷
貰
～
2d
add
钝
コ
驓
譜
★★★★★
宦
咙
豪
以
孚
蕴
薄
瀏
##ム
䁡
##79
菁
憊
meta
##█
bag
谫
撒
関
player
緣
沽
栲
auto
传
俭
⑤
陀
淩
‿
枱
缸
335
舎
荤
销
肛
##には
稽
觊
光
ʰ
壯
焜
醧
梠
𩪝
鸢
院
岗
ultra
憋
傾
訓
哂
络
鯊
##read
潋
濆
綅
贾
凭
place
轠
韽
陧
賄
噰
kitchen
箏
渚
燉
##sk
鼟
new
灶
391
鄦
廋
㡢
萎
姨
牂
汋
##ram
昉
嘯
lenovo
葡
し
jerry
##oot
42
塺
鍊
涿
##pt
θ
恙
燕
朴
4g
イカせるテンマ
24h
multi
话
fresh
琵
菘
岒
釜
韌
5t
その
388
哥
䪜
捺
##cture
㦯
175
毡
v6
粪
趕
勺
澬
like
loading
254
轣
豊
project
璧
##bt
##ev
赴
鳷
妲
055
𣅺
榝
蕈
恩
㴉
##ud
popular
䘲
豜
顔
##ja
nu
鹌
“
災
𦨵
併
恤
紹
窐
釀
187
##ata
绲
荈
腌
恸
貂
##71
頖
𪈺
衒
撿
cloud
畬
鳅
婪
##f
lu
ᆺ
曥
話
枝
##のお
肰
秘
刑
##table
菆
㟽
嵐
当
舔
峍
﹖
酲
驥
颁
倛
##nt
跜
a3
跄
鼕
騞
狘
b2b
诂
╭
雺
瘙
魖
##rmin
蒿
note
##zen
笾
郜
影
粱
##いた
郯
殖
痼
溃
嘌
俣
kindle
##12
##nge
neo
##win
荔
##od
指
##aid
##iu
惟
岞
涫
gif
5℃
𤬛
鯸
del
熭
笰
恇
䬃
ｽ
玻
迀
岫
𪕋
韛
遆
gps
##gc
呲
7headlines
窔
rick
[unused90]
##おり
立
凚
祉
渎
刖
jpeg
/
轼
岕
鹄
皬
緒
##dget
鄫
邃
1926
畿
絙
豽
肝
↘
哙
899
←
##lex
丙
𡾹
堧
鶤
潴
to
茫
投
320
牙
##dar
鼷
纓
癸
钜
韶
璈
慺
1979
780
樯
值
sr
爓
浆
島
巿
渾
翛
9678
鏤
毰
侐
吮
悄
magazine
啝
また
paris
倔
嗆
棄
捍
鳟
畷
揖
标
阮
襡
wu
巔
駒
oo
362
蟎
删
揉
䦖
跅
揆
鶠
瑞
莬
傞
苙
械
湆
讥
凜
愈
甭
驟
bar
╮
办
簽
莠
##t
愜
尚
6a
pwm
ww
贞
哆
训
梗
藤
骐
а
弝
its
举
殾
扷
just
仝
##o
腋
嫖
咔
##ity
讀
㡚
蟟
渻
崒
2300
𬒮
犢
涉
wed
前
岊
你
##は
jcb
鬟
##ow
1868
峡
352
裂
噜
ᄋ
装
轭
埆
贊
柔
side
跷
蓨
括
煦
匙
博
殘
癱
##ada
主
芝
鱉
蘭
江
topapp
##cing
趍
鸽
罙
詫
618
𥗝
暫
##ian
ict
褅
譴
target
##dra
唄
浜
翴
縼
鈞
##ml
胡
422
痎
990
唝
閲
続
##hz
閤
karl
##55
罄
猷
㘆
头
瑛
工
曚
鷹
angelababy
簬
遢
飙
丿
碚
python
醟
##sol
縱
蜺
499
牵
𠻳
448
##lam
豏
pchome
imsean
悤
921
##lf
杮
ng
𧌒
呐
##ard
包
遲
143
##ds
灿
世
##ca
廮
389
缪
低
恽
黈
徳
##｜
tomtom
锒
how
涧
united
瞵
邛
麖
nokia
發
ｏ
##ハ
局
釉
𨍏
content
㶷
運
峄
攻
榑
懑
metro
麰
ieee
##nnis
桫
##～3
松
腤
纟
垷
el
恟
劬
anne
anthony
珰
諺
##rm
future
绵
excel
茬
嬴
##face
呕
钃
云
谾
?
碉
圩
鄘
##app
梿
唰
狍
詹
鞔
瘒
##ser
1933
祏
籟
1920
羸
##ター
殁
鹐
箜
鞙
鮨
027
坦
鄄
##if
楩
謑
甕
ii
honey
鐵
##11
ai
潻
lte
嘬
诌
矾
璜
visa
##000
掾
螃
迤
魆
ß
七
撇
祥
騏
橫
橼
喹
㕮
湋
2
##ppy
𠴲
礤
胆
偾
惋
唪
鬲
腶
2000
##ンター
誓
▪
袆
瀖
阉
踱
all
㬒
##ress
guide
躩
▲
溠
oct
asr
孰
25000
例
mit
籴
菣
尘
##stro
v1
编
oa
407
岷
楰
pi
撙
ェ
##ool
modern
digital
碶
sotheby
09
𡌚
8mm
坵
贸
澍
≫
親
铄
喪
誠
养
叫
餵
窙
series
##yi
薇
mega
𧽼
蹜
彖
焯
近
鍭
189
橐
cross
娟
啽
祭
蓩
愊
羹
郛
業
騰
my
##rd
mi
瀾
圍
員
猇
锋
憖
##32
##23
𨌠
忾
验
啷
ᵏ
##lk
x3
##cp
咥
22
gnu
揫
垫
尬
蝂
玗
wave
兆
𤤮
𩌦
distribution
约
𢥠
醛
##21
眸
多
𨄌
ت
鑄
釰
centre
塔
[unused11]
捎
##son
𥚹
ｗedding
央
tv
س
俑
吶
锑
firefox
鹉
##hop
eeworld
沷
欨
溵
##tf
麦
沫
蓣
溴
乙
殄
酴
鍱
偪
滮
##いる
img
357
觥
##fer
早
蒡
跇
蚜
uv
蹺
獠
笑
锓
焚
摐
典
๑
elle
勔
袅
bear
桌
楘
掸
門
訾
褒
𢜤
kimi
##tore
晟
祩
弮
渧
照
熱
url
#
mba
𤠾
后
～1
豾
靜
鸪
陳
ll
rebecca
##ラン
thinkpad
俨
搢
媢
風
usb
function
砾
恵
纭
䀽
蜼
昌
##sue
镕
蝓
瘏
條
滇
award
##pact
锈
漦
搁
cpi
嚓
慠
牿
厳
376
粟
硩
湠
渺
划
佘
漣
朌
菹
钳
勖
徉
巫
矮
斓
171
杼
##shot
晛
骶
萤
wiki
##ませんか
惬
抑
阍
705
啵
慇
喵
悆
岧
訹
颧
岍
呛
汳
嫟
cba
觍
られた
楠
腝
盒
蟒
##110
粵
##ep
j
354
macbook
勮
滅
##かり
韡
倜
阈
轰
懂
䐹
哢
矣
飪
##type
##ima
礓
綏
冈
刬
挻
諷
先
吗
##60
##スト
hotmail
埠
鳝
planet
##field
約
跮
銬
##top
縰
潫
勛
峕
ko
酐
夢
距
晻
蓉
矄
罹
80
个
溢
懡
舊
g1
嗏
挏
序
侄
純
comhd
躊
茅
back
eco
b1
钥
躧
㷸
偿
lonzo
裁
##boy
遇
education
003
㶏
##ku
虸
挝
ruby
1885
监
root
𨵦
獼
､
##force
鱸
boss
229
yy
##sen
狄
䛡
瑭
鞠
mt
twice
觌
穴
梡
芙
酅
ｗ
says
##pp
颟
猛
jchere
融
##bc
囷
唏
式
亍
陆
𠙶
朦
𣯧
玩
谺
趩
竞
氋
镯
玠
##とは
教
刹
f4
嘶
鱗
##gm
284
仆
##ella
牸
皺
##y
泂
##50
艦
xr
bird
璩
辁
谥
386
##しい
##mon
就
灞
麺
##ry
##ては
柣
玟
t2
臃
爹
散
ce
##tics
袟
抒
糵
170
簇
～10
枷
ョ
013
双
95
逊
䂺
鞄
可
camera
𥱰
ミ
溯
蔿
𡼋
song
戄
阨
瘽
欬
稂
蹴
畋
##nm
##ake
icecat
鼯
ر
簷
魘
##map
難
癠
潝
旌
䫸
55
転
忸
𢎥
㽦
莙
簴
##news
║
sky
覸
铔
犒
緞
颇
冁
else
pr
謐
彪
萍
叛
沛
蠋
##せ
爪
jimmy
8cm
bing
㒽
𤧚
鳌
规
萼
street
莛
菪
綱
public
ps3
め
赏
蕞
㽛
徐
##cast
螴
貢
嶕
つ
虩
鳥
苏
欐
##mhz
暼
##of
##fw
赙
嘿
阄
##ernel
鐎
dns
楙
及
野
##ya
心
##di
|
輚
say
旁
敍
鹎
㛰
俟
鮾
沮
板
恁
433
釗
super
##ful
對
餮
鵙
筍
飋
560
皓
▉
濌
算
唣
鸑
##las
桓
躪
曕
貽
拒
uhz
䭔
│
reuters
凇
罟
441
钛
壅
煹
覚
##os
孅
熳
嫽
329
执
看
浲
gb
rm
荐
196
許
﹒
冽
懈
days
懦
蓐
嚮
蹛
氪
##24
纱
墠
鞨
344
戟
mandy
##cg
菑
染
マ
䆱
橄
8gb
択
岵
侔
崄
control
欻
##４
钞
嫠
醺
薧
咢
砣
𪃿
樞
筏
蜆
﹣
鹴
醫
𢦤
wx17house
麇
tokyo
茔
1889
donald
罼
skin
蜚
邢
斜
宎
俸
僥
螨
##テル
柳
メーカー

していると
䒠
祯
•
骠
㰅
茐
稔
1963
荙
蝸
舥
蕻
蝟
罿
弟
来
鸿
適
禼
vivi
##ana
鈇
绚
诓
芹
寝
##vi
asus
桼
∽
磴
㟋
委
评
歪
莆
nova
黪
鑰
俓
64
娉
缴
鎗
茎
䴡
膍
inparadise
擭
筌
滋
##wang
盪
▼
mysql
慅
1500
俿
##nos
磋
圏
##83
闉
##fe
威
綺
骅
阌
俙
駼
える
1890
匝
臥
惡
碎
诡
sense
眹
v5
鞣
𧉮
顱
易
榼
ios11
紙
𥨩
槚
铗
浸
𢘤
碻
衍
諟
曦
239
拓
##mporary
𡋯
奧
𢠵
1950
撩
樗
砮
《
羥
a6
share
旅
彴
伍
豺
𣼽
𤠔
熚
恲
䌫
曖
簝
麒
㧙
##～6
dean
した
塿
蓱
450
1800
##きます
##コメント
１２
樊
跂
奯
啥
碁
潆
僇
l
##erson
绪
die
ˋ▽ˊ
綀
𩯚
阀
378
匹
apec
unt
邓
≒
ᄇ
卨
梃
绌
1～2
銑
修
朅
甲
崡
60
浭
葼
缮
瞋
衵
mm
##❤
##data
think
榰
盃
迾
嘭
want
孴
曼
呶
䆞
䌌
##74
牠
纁
you
##ク
116
圄
智
輂
挠
燊
蕝
c1
県
笪
氈
虓
岽
覼
镦
君
will
嚱
肮
趵
炀
贫
鶴
沁
漷
##tic
纆
付
继
𠇱
鏡
埲
蘙
ᵍ
party
槤
鎖
positioning
齴
453
##ルハイト
##49
躞
掌
mastercard
床
噏
桅
劋
赆
儆
∩
笺
熾
椠
little
##999
𡬶
pvp
吖
givenchy
##mond
俱
𤍿
##300
蹒
馒
庉
man
迹
衋
釱
诛
浡
am
鍖
tony
辛
迮
##wo
慫
津
ka
293
髲
裏
幮
焕
-
asia
啡
绾
iu
輮
椷
曶
271
陉
絇
轃
𥴦
铤
踝
禈
蘘
辚
硊
鲸
嵿
gear
326
archives
哪
vetements
茩
[unused22]
剩
濤
健
嵏
憀
𦇧
｢
岩
虷
紛
暵
號
疣
young
藠
糧
m3
餈
謷
䞉
52kb
pvc
參
醠
傷
額
341
祴
回
喬
##ᆯ
旝
葇
诃
箇
text
windows7
阑
跕
职
攝
㩀
戮
197
琉
wma
##2012
傳
受
喁
##ine
怦
##2013
1977
##▼
盰
讆
斋
劭
muji
布
拣
瞽
彍
試
##tton
磯
boost
底
虮
鵗
篠
廇
302
骧
gallery
愰
氰
0l
唲
灈
勚
廦
邏
捣
𪑜
泪
䈥
莊
驅
##al
##ta
cc
诅
灾
##ri
thread
##erry
##ries
3～4
嵻
緑
璃
㑴
閟
##2015
more
english
##39
tc
dx
羂
噈
岚
郓
娵
骎
賈
錫
德
gis
タ
僝
１４
02
斟
鄤
诖
##すか
陣
狝
痟
絢
駮
[unused62]
##ping
吷
dear
谑
功
蘸
狉
飢
蓊
芋
##ose
壊
ˍ
郿
厲
嚷
##ひ
ds
岦
弑
懇
過
幌
carol
285
厶
▋
駬
畈
帰
𣶏
杏
睟
苷
##れ
aphojoy
bus
1010
516
##48
馨
䖟
singapore
祸
菂
##tings
喤
sas
骆
淲
𡒦
緹
言
苔
寮
##wd
𥦖
𡷾
oculus
##hl
丶
哗
浉
they
欽
奉
琍
温
磬
規
購
氐
肄
䀛
匊
##70
overchicstoretvhome
嫞
献
轥
䫻
紡
铓
##001
浒
aug
##い
¼
纽
黑
觚
瘓
蕾
摹
coffee
僭
精
橶
暖
誇
签
僧
堠
畴
稹
间
mtv
鎝
##x
尹
##33
独
巷
ing
袁
盟
矸
敛
婥
rt
剚
姦
邮
鹗
﹗
䵼
庀
##ins
饿
霂
妹
撰
蛙
畼
order
辴
啞
慾
focus
##bow
##n2
馩
服
莒
##015
糖
熊
[unused38]
##zzi
蜿
握
reader
##4
嗋
肷
卞
抚
樁
##nity
初
袷
僖
鹅
с
頵
裟
囱
際
𣯶
绹
㭬
自
鋒
ｒ
槢
魗
侜
娓
##ics
疭
䙬
*
哏
f
赶
欖
vincent
τ
彘
wow
##tis
缰
##atus
纩
硾
▲topdec
斫
##ous
辇
致
㗶
洵
鬻
##ik
5m
雞
鋞
羣
蚰
雛
滭
訳
##mail
猫
縛
減
绕
褻
破
##ification
丐
獑
##₂
玚
㠜
椪
嘜
境
踠
亳
霅
爚
遘
寬
獎
video
##ため
d1
9000
##nba
喽
弇
##kv
搬
剜
丕
101vip
遽
##gate
軏
壶
荆
##ost
蟓
鷠
鲎
牍
障
虈
厅
505
∣
##xy
pen
㗚
旖
橙
𤾂
は
嚟
潔
钓
炬
端
猶
6s
摵
縆
婕
𠹖
撮
評
合
м
糟
舗
##unch
##py
䖃
bot
##love
akb48
攃
〇
[unused41]
##ｉ
俘
屯
蛩
379
趐
収
邠
车
薢
鳔
爻
众
懺
葐
備
啲
篁
閩
茨
292
tinker
╯
绡
凸
##lot
柂
滬
瑁
荟
胝
拿
霫
绸
𩆷
沟
##19
mp4
哎
lock
＃
闲
維
髓
紏
玱
媕
逻
醪
鹙
复
check
秷
盯
菻
恬
##ical
缽
c2
斝
㵐
脽
tech
6gb
偓
privacy
邘
368
##gas
阘
linux
と
溺
map
201
詅
撫
貉
hsu
歙
blogspot
盔
jp
灯
娃
op
act
##rris
裴
##をお
颜
蕤
襫
𦞦
骯
道
疄
苒
ة
剀
煙
锧
蕺
next
㷔
card
籧
鲖
悰
ddd
奐
齦
gl
汃
覛
688
蒯
甙
髽
鞕
擁
##ka
劖
coc
䜛
郾
蹡
楛
䊗
鵝
nego
岠
膾
讹
媚
鞞
凋
往
藫
供
祗
䘍
额
檛
浥
擎
##ini
em
黥
掁
諡
幡
軒
蚤
宄
瑈
缞
鲀
舚
袗
##ᆨ
刓
member
ο
渊
鹰
仞
##ap
摭
✪
md
𦤞
荀
柴
縴
鼍
紊
谩
铒
枕
咋
𪓘
懠
氟
嬢
縓
龟
curve
咘
巻
倾
##ville
浪
騑
sea
傕
##cent
叠
udnbkk
㩦
仲
潖
1024
荦
186
2050
##ough
𠺕
[unused23]
穫
跏
##94
簌
櫑
𠌯
茹
尸
慁
315
ᅪ
鐺
谖
定
eps
鞅
摩
id
59
##rade
kim
恍
oops
鬈
荍
𠵣
孿
https
##а
肜
##nne
黳
泰
輩
鸺
寰
颎
鹢
═
纾
筷
てある
alexa
keep
橱
blogger
347
他
フ
净
book
跪
舶
辀
惉
‹
撂
##ico
177
睁
燀
儲
蜾
discuz
##ition
##tz
琶
##3d
咈
##ha
浑
𡝠
沌
幢
661
问
cook
鼮
tmt
嗔
𥥆
135
stage
##この
fishbase
貆
碏
轙
钎
䀪
ちてすか
认
𢆯
explorer
war
笨
蠀
娩
30
膛
边
jason
##ould
擷
嚣
嗡
闪
𧅁
┃
昳
丸
american
苗
鐲
take
trip
胰
凿
朕
陶
鯈
耜
肦
傔
##bar
2017
91
##the
橤
缲
芗
筲
媰
浞
鮑
dj
##atic
孓
𩮰
##hip
锯
髁
跲
鲧
雈
䣊
211
鏽
芄
晖
global
まて
园
衛
pass
屰
矢
217
橋
about
僚
旱
漭
茲
royal
甓
趑
惛
switch
槵
365
钣
鰻
«
馺
泜
web885
肃
䎙
powered
还
seo
推
槊
㬈
##chen
豝
には
months
镭
nbc
季
𢥞

♀
arm
尔
狎
08
営
##ade
彬
this
久
##tus
坞
𩂣
勿
姿
##card
いて
酾
300
##va
擐
辂
凛
詞
衔
腈
壁
283
佟
榮
黂
2gb
308
邂
别
疴
##fet
沔
矽
session
1957
濋
焊
##uel
emily
獦
希
##５
鮹
崴
𩆩
朣
麧
˙
##81
赞
翁
xxxx
##nia
盭
框
姘
wang
鬆
蹁
頂
##90
##no
blogthis
鲚
繄
nano
阻
##か
穰
again
篪
咶
鎞
巨
脊
軓
膜
曆
v4
嘍
lt
喝
４
痴
蘆
讼
啰
矛
胗
鐏
𪔆
脯
殳
碙
stop
##hua
磌
摎
鋊
寇
##age
##posted
韜
窜
𤨏
鼎
##42
ナ
rose
槎
髧
鉼
してみてくたさいね
岑
互
苍
埵
椇
浤
##mb
eva
dm
さん
歠
蝝
##chat
503
韎
殚
靷
芨
𪊍
欃
篓
啯
##なりました
email
代
𡾰
秸
亮
繇
♂
滯
double
photos
憤
摚
##lli
皱
result
頤
##ill
酊
##ggle
擞
𧇠
遹
dv
慧
ｕ
𥊑
ga
蹐
餃
##wt
襓
藐
##ack
harry
醑
箸
杶
press
##rs
skype
岢
amg
浙
塉
鞟
笢
##us
航
芲
##ai
ɔ
韦
鞺
夺
518
##rr
cto
谤
脁
腭
螂
𣾘
时
斮
ヤ
躺
氾
をお
採
bill
袢
䠞
よ
blue
器
##～1
611
##an
羔
𩘅
##れる
jackson
籑
噔
罨
##き
楶
vi
廢
##520
哩
012
湥
en
##tee
east
##ute
䗫
糜
##サー
模
艰
婁
迩
欣
禆
##bit
𠢐
硙
拼
衰
##getrelax
狤
##レ
奬
騢
##てすか
犹
贬
研
##red
摞
wonderland
吠
塈
苪
漘
歊
诠
との
帩
xdd
襂
圉
嬖
慰
pa
虋
[unused52]
焦
筝
easy
犄
灢
驺
bp
癡
av
缬
纲
镝
嗌
ル
磻
葉
蜗
蓏
mall
柎
瘢
鳱
銅
糁
料
钚
濑
䑸
念
徒
虜
栮
hgih
蒳
鬙
20℃
訛
丫
啾
##port
嘔
##2d
妃
闕
返
埇
䣻
纍
鍾
1989
4066
钹
費
ed2k
7866
sf
せからこ
ㄅ
hall
contact
≈
window
泃
↓↓↓
蔚
堂
沬
東
戦
》
え
満
𤏄
##ces
##pd
culture
齆
鈋
案
##try
help
櫛
署
##av
##tter
䔍
##ils
鸳
竽
body
峰
𥐭
葵
麟
铉
pixnet
macd
paypal
尨
嵫
俅
骡
嶄
428
堶
璟
婺
萊
匮
铬
##iki
晀
繟
脈
哺
##017
##gn
ᄑ
变
##cer
聋
帮
豈
傀
胪
墀
襚
覷
鄞
##ein
なお
獹
銗
跖
翂
##bel
婦
抽
膰
苫
汘
轵
骳
騣
##ong
‰
毷
п
瘦
喢
sodu
褲
烯
魋
リ
##66
beauty
##600
2600
蛮
##700
琪
饟
股
肤
棱
槦
安
集
18k
demo
ワ
𤥐
産
琄
衞
矇
補
##ock
wii
377
˚
妫
牜
塌
仓
応
𣎗
286
霖
湅
转
圯
很
##ance
##vice
faq1
蚧
點
潬
嵼
lo
港
祐
虏
すく
区
镂
柯
嶈
獅
##om
嶪
珲
醉
##rame
掳
𦨰
隳
洑
绔
斡
㒒
周
缢
x4
薷
巩
ｌ
or
info
詢
eye
袽
麴
feb
蚋
##ル
616
##yy
粧
墻
ゆ
咜
›
閎
鴕
##mu
sgs
泬
㖃
𧒭
漅
##file
024
𣟴
沒
淺
巙
氅
福
ゃ
[unused37]
鸒
㜻
揳
盥
薆
藨
盘
𩆵
廂
齮
撋
揀
磚
麜
not
袂
篽
珉
##fly
诫
准
虽
(
etf
books
霄
艹
期
部
柿
呾
⑶
埽
1914
##ell
翊
碯
索
面
塍
赟
φ
桩
х
➜
脔
㜞
怓
−
箝
、
踤
appqq
𦎬
捞
啉
顯
cx
そんな
睨
罾
瘳
\
林
甯
##fi
day2
啿
溞
鞍
金
施
毵
蹠
添
澥
堯
籋
姒
廨
摔
潘
rends
てした
▌♥
##なり
dji
##ey
瓞
豗
##と
胥
##llo
様
舒
冘
拘
##sit
##sha
wps
糾
have
hostel
尖
确
罻
傢
炊
愞
齯
𧥄
懾
緋
緝
淳
顗
宧
孜
荥
xyz
喉
save
蕄
438
糙
团
癜
烜
let
樣
鏢
鍉
忑
嘼
惏
x
133
韆
鯖
蛏
靺
䉂
睌
佥
枑
339
ann
髑
砏
㵿
歅
朱
苧
1g
626
##ての
董
悽
竭
地
牛
毣
garden
凱
瀅
惾
﹐
暗
柙
epson
something
壞
幕
绋
䘵
嵌
岰
髺
##ase
##750
堑
琫
踪
胖
締
寞
鸱
##shi
浚
笋
霔
直
による
𨟉
夯
烔
1953
駄
tb
ㄏ
mkv
works
[unused34]
蟜
谆
栳
叨
宮
self
悍
嵘
镞
eclipse
##cher
##load
句
潞
嶟
庶
錶
sports
##©
褓
##ons
g20
谚
輻
number
球
##ain
蛰
梏
繆
斑
氎
機
鳆
uniqlo
個
琨
侶
冷
钖
𧮳
##0
揗
𨳲
association
篆
148
##tions
擖
鈾
##163
预
##◆
push
patrick
泸
惎
𤯝
畏
阊
繸
##ａ
驱
癞
㦬
##x5
嵇
chrome
fun
𨣧
tila
key
960
鳻
喣
窠
船
##のてす
厘
れた
##んて
鸐
step3
酚
无
靀
颵
榔
繋
##46
fast
拲
警
𥐊
岉
冏
╰
𣟄
砥
曳
nt
均
gundam
胁
𡶒
币
牱
𧴆
騎
ltd
qr
崟
pet
q1
纪
サーヒス
媌
彩
壩
齼
巅
涙
publishing
february
##ber
azure
脱
镮
璁
first
毙
##in
摲
[unused32]
##なたの
rd
##さん
洩
龕
扶
咺
媻
炸
眝
邶
相
郕
霤
▬
peter
薹
澱
256
竫
鬥
游
[unused97]
貐
伈
盱
虨
㢠
滩
##list
阽
pro
𡒄
##ur
㔩
vans
甀
鞁
james
巏
斗
馗
狹
的
鈴
鏈
惦
俪
䍡
##62
欱
1860
𥮘
檑
骰
晙
絡
錠
890
com
##200
勷
鯰
north
228
詬
紞
cache
湘
棧
path
##tion
朔
鬋
嗺
１３
1907
芘
##np
嗄
ｐ
跿
173
讓
矖
抠
櫰
##02
##back
ajax
槩
188
𠟡
茼
佽
述
䃧
鹬
㴑
椅
铵
vol
桭
雯
掠
晅
嵝
worldcat
给
考
鬐
！
蕖
俋
顴
龋
##61
##ことを
蜷
䢉
𡟎
𥟱
訟
哕
棗
盗
堆
烃
趠
ｏｋ
##vd
毾
镰
丌
状
兩
撻
鴥
崆
綷
##ue
mr
##bee
殈
賴
招
頗
##123
##now
䋏
阕
矕
仮
menu
澌
钨
迭
micro
漪
椄
術
導
迴
䪗
轑
𪷟
契
䳟
幀
な
繃
㗫
呺
挞
旡
飂
饫
ф
鸡
標
賣
find
##rder
##urg
465
僮
客
厥
銭
[unused29]
遬
觉
管
襁
author
舞
step1
##ーム
徠
旻
𨇰
髋
々
潗
膎
堃
##360
2700
彋
諒
𧃲
737
馢
瓤
匐
馚
缤
轊
##ータ
㺜
㫰
lily
abs
嚗
00
呥
line
抵
铣
鄀
327
release
插
teddy
support
从
朘
鄯
汧
厮
岏
蹈
嫔
鋅
驕
焱
##au
姏
阺
晊
幾
逾
䝤
豻
鳊
▌
璽
讞
蝾
压
劳
臕
唤
##ather
栩
飞
礏
蕭
鰾
再
鋪
乒
##uc
泚
lan
bridge
郗
1
◕
##lock
獉
##sta
诎
獞
##5
栏
术
㗀
ofo
瓅
𨄻
鳇
蝘
##ner
耦
鱄
授
亨
dlc
玥
𠹳
產
酳
义
##ym
場
餐
蹶
176
赝
尌
曤
酶
425
㱔
逝
廜
各
##ook
801
爟
齑
汾
ups
托
[
䰐
瞟
〖
翔
煆
##87
螭
儉
##pass
字
冼
しています
赧
m1
倦
脆
𧱓
##ますのて
扫
崭
狚
資
𡸣
##お
kb
##rmb
黹
rock
辋
##jiang
挥
粇
50cm
嗤
隸
267
##ller
焌
偽
厚
bay
据
嫚
扱
賑
nc
究
##llow
虱
厢
##jia
琬
瞷
呤
燧
嗼
蘅
簋
潤
1993
芳
do
鳏
嵷
1965
檸
暇
庇
㲪
鹣
咸
慘
異
pu
1969
绍
州
##act
鶋
䓁
曝
沸
炱
『
ㄌ
颋
ted
膺
筵
渰
william
倌
挙
##ット
璊
6g
𡠜
string
愕
嗇
247
##250
針
龆
750
湳
像
333
x7
儓
缯
##mine
鬗
痰
鹽
鰆
莸
㾓
况
𤎥
五
##box
または
笕
脇
the
july
214
澈
令
乏
觰
ⅴ
搜
sofascore
掲
##style
鹦
𨕣
艬
##fit
艧
搽
浴
瓮
&
tm
襶
##ita
憃
]
䑺
隈
攘
肠
㸌
雵
菙
火
X
芬
馮
##ch
上
蓻
荓
扪
㴸
憐
jb
辞
orange
佰
渼
茒
墈
耛
web
輠
钱
烁
rmvb
##logy
颓
6
挡
堍
卼
1960
where
##room
##ets
𨇯
019
縷
阹
造
嬛
##note
##おります
鯽
辐
妘
鶘
##stry
儒
䟫
𣂏
鹒
糇
核
湟
新
瀄
380
攬
贿
律
諈
しにはとんとんワークケートを
魅
##said
纏
##sion
挃
豮
june
fpx
舫
薨
狈
295
黦
䩬
勧
##core
╳
##itz
啴
睞
籮
みいたたけます
408
𦙍
刚
隍
褛
娈
抶
𥀶
畀
5c
屁
奄
赵
辔
痌
岛
衣
烘
㜪
呻
鐮
熵
survey
click
╠
糬
257
喈
皋
皿
ᵐ
107
雲
唑
╱
禖
𧕏
##ay
饆
千
##ode
posts
fx
䭿
稣
哫
##あなたに
蔻
掃
##クok
##mma
縈
洭
褠
﹁
##dden
础
欄
鹕
𠿕
崅
儃
##てお
𧎢
芧
暳
赍
艴
裸
檽
愡
®
卍
程
毐
莺
菏
𤞑
##＝
躔
臧
閦
雖
イ
刁
𣠚
kitty
application
饎
种
##ィ
煊
樨
欦
##lution
眷
茴
翓
炖
呀
璚
泎
file
鑽
##lls
竁
##onsored
cj
煸
賂
##00
𡽶
未
恪
逶
綿
丏
瑰
賢
pt
830
01
41
缵
媒
㠠
蛳
曇
扎
嘀
5500
憂
##７
##cal
揞
耆
##18
芫
郲
蠃
殆
餪
浄
禬
哜
##ague
䴵
鈉
铩
购
廿
𦉥
烛
异
舴
桴
峓
htc
2g
business
聒
韩
邴
洧
澧
k
121
涡
醥
た
##ｘ
趾
0800
癇
霑
壢
鄳
拦
酃
酕
006
##na
潇
##lo
economy
迄
挤
驼
積
㳁
鸲
澒
侂
堭
杯
谗
㹳
靓
碅
旨
゜
疽
懤
褰
襵
456
đ
彎
◆
㰤
沏
趫
釦
缗
[unused61]
涬
莎
壮
₃
netcomponents
瘾
##～20
縮
綢
good
睾
##めて
殉
堄
##eet
燈
亦
##hs
union
##ω
胃
笞
叁
愦
猘
餚
蚯
虿
邀
齃
硌
弊
淖
##014
税
週
鼢
360
扐
哐
儭
[unused7]
𧰚
洸
禫
穸
紂
蒪
xz
漩
餋
节
敬
le
婉
權
𥜗
旗
縩
恊
憔
2008
𪎭
苢
magic
責
19
遰
瞼
琦
鉎
eyes
啙
椒
賀
枭
涮
鬚
誂
cafe2017
##len
秥
150
minkoff
探
匀
豭
